unsigned int model_tflite_len = 12520;

unsigned char model_tflite[] = {
  0x1c, 0x00, 0x00, 0x00, 0x54, 0x46, 0x4c, 0x33, 0x14, 0x00, 0x20, 0x00,
  0x1c, 0x00, 0x18, 0x00, 0x14, 0x00, 0x10, 0x00, 0x0c, 0x00, 0x00, 0x00,
  0x08, 0x00, 0x04, 0x00, 0x14, 0x00, 0x00, 0x00, 0x1c, 0x00, 0x00, 0x00,
  0x98, 0x00, 0x00, 0x00, 0xc8, 0x00, 0x00, 0x00, 0xb8, 0x21, 0x00, 0x00,
  0xc8, 0x21, 0x00, 0x00, 0x54, 0x30, 0x00, 0x00, 0x03, 0x00, 0x00, 0x00,
  0x01, 0x00, 0x00, 0x00, 0x10, 0x00, 0x00, 0x00, 0x00, 0x00, 0x0a, 0x00,
  0x10, 0x00, 0x0c, 0x00, 0x08, 0x00, 0x04, 0x00, 0x0a, 0x00, 0x00, 0x00,
  0x0c, 0x00, 0x00, 0x00, 0x1c, 0x00, 0x00, 0x00, 0x3c, 0x00, 0x00, 0x00,
  0x0f, 0x00, 0x00, 0x00, 0x73, 0x65, 0x72, 0x76, 0x69, 0x6e, 0x67, 0x5f,
  0x64, 0x65, 0x66, 0x61, 0x75, 0x6c, 0x74, 0x00, 0x01, 0x00, 0x00, 0x00,
  0x04, 0x00, 0x00, 0x00, 0xb8, 0xff, 0xff, 0xff, 0x18, 0x00, 0x00, 0x00,
  0x04, 0x00, 0x00, 0x00, 0x08, 0x00, 0x00, 0x00, 0x64, 0x65, 0x6e, 0x73,
  0x65, 0x5f, 0x31, 0x31, 0x00, 0x00, 0x00, 0x00, 0x01, 0x00, 0x00, 0x00,
  0x04, 0x00, 0x00, 0x00, 0x22, 0xde, 0xff, 0xff, 0x04, 0x00, 0x00, 0x00,
  0x0e, 0x00, 0x00, 0x00, 0x63, 0x6f, 0x6e, 0x76, 0x32, 0x64, 0x5f, 0x39,
  0x5f, 0x69, 0x6e, 0x70, 0x75, 0x74, 0x00, 0x00, 0x01, 0x00, 0x00, 0x00,
  0x0c, 0x00, 0x00, 0x00, 0x08, 0x00, 0x0c, 0x00, 0x08, 0x00, 0x04, 0x00,
  0x08, 0x00, 0x00, 0x00, 0x1a, 0x00, 0x00, 0x00, 0x04, 0x00, 0x00, 0x00,
  0x13, 0x00, 0x00, 0x00, 0x6d, 0x69, 0x6e, 0x5f, 0x72, 0x75, 0x6e, 0x74,
  0x69, 0x6d, 0x65, 0x5f, 0x76, 0x65, 0x72, 0x73, 0x69, 0x6f, 0x6e, 0x00,
  0x1b, 0x00, 0x00, 0x00, 0xec, 0x20, 0x00, 0x00, 0xe4, 0x20, 0x00, 0x00,
  0x94, 0x20, 0x00, 0x00, 0x74, 0x20, 0x00, 0x00, 0x44, 0x20, 0x00, 0x00,
  0x24, 0x20, 0x00, 0x00, 0xd4, 0x1f, 0x00, 0x00, 0xa4, 0x1f, 0x00, 0x00,
  0x8c, 0x1f, 0x00, 0x00, 0x7c, 0x1b, 0x00, 0x00, 0x6c, 0x19, 0x00, 0x00,
  0xdc, 0x18, 0x00, 0x00, 0x1c, 0x17, 0x00, 0x00, 0x8c, 0x12, 0x00, 0x00,
  0x7c, 0x00, 0x00, 0x00, 0x74, 0x00, 0x00, 0x00, 0x6c, 0x00, 0x00, 0x00,
  0x64, 0x00, 0x00, 0x00, 0x5c, 0x00, 0x00, 0x00, 0x54, 0x00, 0x00, 0x00,
  0x4c, 0x00, 0x00, 0x00, 0x44, 0x00, 0x00, 0x00, 0x3c, 0x00, 0x00, 0x00,
  0x34, 0x00, 0x00, 0x00, 0x2c, 0x00, 0x00, 0x00, 0x24, 0x00, 0x00, 0x00,
  0x04, 0x00, 0x00, 0x00, 0xe2, 0xde, 0xff, 0xff, 0x04, 0x00, 0x00, 0x00,
  0x10, 0x00, 0x00, 0x00, 0x31, 0x2e, 0x36, 0x2e, 0x30, 0x00, 0x00, 0x00,
  0x00, 0x00, 0x00, 0x00, 0x00, 0x00, 0x00, 0x00, 0x38, 0xd1, 0xff, 0xff,
  0x3c, 0xd1, 0xff, 0xff, 0x40, 0xd1, 0xff, 0xff, 0x44, 0xd1, 0xff, 0xff,
  0x48, 0xd1, 0xff, 0xff, 0x4c, 0xd1, 0xff, 0xff, 0x50, 0xd1, 0xff, 0xff,
  0x54, 0xd1, 0xff, 0xff, 0x58, 0xd1, 0xff, 0xff, 0x5c, 0xd1, 0xff, 0xff,
  0x60, 0xd1, 0xff, 0xff, 0x2a, 0xdf, 0xff, 0xff, 0x04, 0x00, 0x00, 0x00,
  0x00, 0x12, 0x00, 0x00, 0x45, 0x22, 0x91, 0xbd, 0x87, 0xc3, 0x61, 0xbd,
  0x06, 0x83, 0xc1, 0x3d, 0x04, 0x02, 0x81, 0xbc, 0x85, 0x42, 0xa1, 0x3d,
  0x04, 0x02, 0x01, 0x3e, 0x87, 0xc3, 0xe1, 0xbd, 0x06, 0x83, 0xc1, 0x3c,
  0x04, 0x02, 0x01, 0x3e, 0x45, 0x22, 0x11, 0xbe, 0x45, 0x22, 0x91, 0x3d,
  0x45, 0x22, 0x91, 0x3d, 0x45, 0x22, 0x91, 0xbd, 0x87, 0xc3, 0x61, 0x3d,
  0x45, 0x22, 0x11, 0x3e, 0x85, 0x42, 0x21, 0xbd, 0x04, 0x02, 0x81, 0x3c,
  0x47, 0xa3, 0xd1, 0x3d, 0x04, 0x02, 0x81, 0x3c, 0x45, 0x22, 0x91, 0xbd,
  0x04, 0x02, 0x01, 0xbe, 0x04, 0x02, 0x01, 0xbe, 0x06, 0x83, 0xc1, 0xbd,
  0x06, 0x83, 0x41, 0x3d, 0x04, 0x02, 0x01, 0x3d, 0x06, 0x83, 0xc1, 0xbd,
  0x04, 0x02, 0x01, 0x3d, 0x47, 0xa3, 0xd1, 0xbd, 0x65, 0x32, 0x19, 0xbe,
  0xa5, 0x52, 0x29, 0xbe, 0x85, 0x42, 0x21, 0x3e, 0x85, 0x42, 0xa1, 0xbd,
  0x45, 0x22, 0x91, 0xbd, 0x47, 0xa3, 0xd1, 0xbd, 0x06, 0x83, 0x41, 0xbd,
  0x06, 0x83, 0xc1, 0x3c, 0x85, 0x42, 0xa1, 0xbd, 0x47, 0xa3, 0xd1, 0x3d,
  0x24, 0x12, 0x09, 0x3e, 0x06, 0x83, 0xc1, 0xbd, 0x47, 0xa3, 0xd1, 0x3d,
  0x06, 0x83, 0x41, 0x3d, 0x24, 0x12, 0x09, 0x3e, 0x85, 0x42, 0x21, 0x3e,
  0x47, 0xa3, 0xd1, 0x3d, 0xa5, 0x52, 0x29, 0xbe, 0x45, 0x22, 0x91, 0x3d,
  0x65, 0x32, 0x19, 0xbe, 0x06, 0x83, 0xc1, 0xbd, 0x04, 0x02, 0x01, 0xbc,
  0x04, 0x02, 0x81, 0xbc, 0xc8, 0xe3, 0xf1, 0xbd, 0x85, 0x42, 0x21, 0xbe,
  0x06, 0x83, 0xc1, 0x3d, 0x87, 0xc3, 0x61, 0x3d, 0x87, 0xc3, 0x61, 0xbd,
  0x06, 0x83, 0x41, 0xbd, 0x06, 0x83, 0xc1, 0xbc, 0x06, 0x83, 0xc1, 0xbc,
  0xc6, 0x62, 0xb1, 0xbd, 0x85, 0x42, 0x21, 0x3d, 0x45, 0x22, 0x91, 0xbd,
  0x87, 0xc3, 0x61, 0x3d, 0x06, 0x83, 0x41, 0xbd, 0x00, 0x00, 0x00, 0x00,
  0x45, 0x22, 0x11, 0xbe, 0x04, 0x02, 0x81, 0x3c, 0x06, 0x83, 0xc1, 0xbd,
  0x06, 0x83, 0xc1, 0x3d, 0xc6, 0x62, 0xb1, 0x3d, 0x04, 0x02, 0x01, 0xbe,
  0x87, 0xc3, 0xe1, 0xbd, 0x87, 0xc3, 0xe1, 0x3d, 0x04, 0x02, 0x81, 0x3c,
  0x04, 0x02, 0x81, 0xbd, 0x65, 0x32, 0x19, 0x3e, 0x04, 0x02, 0x01, 0xbd,
  0xc8, 0xe3, 0xf1, 0xbd, 0x04, 0x02, 0x01, 0xbe, 0x65, 0x32, 0x19, 0x3e,
  0x04, 0x02, 0x01, 0x3c, 0x06, 0x83, 0x41, 0x3d, 0x85, 0x42, 0xa1, 0x3d,
  0x45, 0x22, 0x11, 0x3e, 0x47, 0xa3, 0xd1, 0xbd, 0x85, 0x42, 0xa1, 0xbd,
  0x04, 0x02, 0x81, 0xbc, 0x06, 0x83, 0xc1, 0xbd, 0x47, 0xa3, 0xd1, 0xbd,
  0x00, 0x00, 0x00, 0x80, 0x87, 0xc3, 0x61, 0x3d, 0x06, 0x83, 0x41, 0xbd,
  0x04, 0x02, 0x01, 0xbd, 0xc6, 0x62, 0xb1, 0xbd, 0x06, 0x83, 0xc1, 0xbd,
  0x45, 0x22, 0x91, 0xbd, 0x06, 0x83, 0x41, 0xbd, 0xc6, 0x62, 0xb1, 0x3d,
  0x47, 0xa3, 0xd1, 0x3d, 0x47, 0xa3, 0xd1, 0x3d, 0x04, 0x02, 0x01, 0x3e,
  0x24, 0x12, 0x09, 0xbe, 0x85, 0x42, 0x21, 0xbd, 0x85, 0x42, 0x21, 0x3e,
  0x04, 0x02, 0x81, 0xbd, 0x04, 0x02, 0x81, 0x3c, 0x06, 0x83, 0x41, 0xbd,
  0x04, 0x02, 0x01, 0xbc, 0xc8, 0xe3, 0xf1, 0x3d, 0x85, 0x42, 0x21, 0xbd,
  0x04, 0x02, 0x01, 0xbc, 0xc8, 0xe3, 0xf1, 0x3d, 0x85, 0x42, 0x21, 0xbe,
  0x04, 0x02, 0x01, 0xbd, 0xc8, 0xe3, 0xf1, 0x3d, 0xc6, 0x62, 0xb1, 0x3d,
  0x06, 0x83, 0xc1, 0xbd, 0x04, 0x02, 0x01, 0x3e, 0x04, 0x02, 0x01, 0xbd,
  0x04, 0x02, 0x01, 0x3e, 0x06, 0x83, 0xc1, 0xbd, 0x04, 0x02, 0x01, 0x3c,
  0x00, 0x00, 0x00, 0x80, 0xc8, 0xe3, 0xf1, 0x3d, 0x87, 0xc3, 0x61, 0x3d,
  0x00, 0x00, 0x00, 0x00, 0x06, 0x83, 0xc1, 0xbd, 0x85, 0x42, 0x21, 0xbd,
  0x06, 0x83, 0x41, 0xbd, 0x85, 0x42, 0x21, 0xbd, 0x65, 0x32, 0x19, 0x3e,
  0xa5, 0x52, 0x29, 0xbe, 0x04, 0x02, 0x01, 0x3e, 0x04, 0x02, 0x01, 0xbc,
  0x87, 0xc3, 0xe1, 0x3d, 0x06, 0x83, 0xc1, 0x3d, 0x45, 0x22, 0x11, 0x3e,
  0x04, 0x02, 0x81, 0x3d, 0x87, 0xc3, 0x61, 0xbd, 0x47, 0xa3, 0xd1, 0x3d,
  0x06, 0x83, 0xc1, 0x3c, 0x06, 0x83, 0x41, 0x3d, 0xa5, 0x52, 0x29, 0x3e,
  0x04, 0x02, 0x81, 0x3c, 0x45, 0x22, 0x91, 0x3d, 0x87, 0xc3, 0x61, 0x3d,
  0x04, 0x02, 0x81, 0x3d, 0xc6, 0x62, 0xb1, 0xbd, 0x04, 0x02, 0x01, 0xbd,
  0x24, 0x12, 0x09, 0x3e, 0x06, 0x83, 0x41, 0x3d, 0x45, 0x22, 0x91, 0x3d,
  0x87, 0xc3, 0x61, 0xbd, 0x06, 0x83, 0xc1, 0x3d, 0x87, 0xc3, 0xe1, 0x3d,
  0x87, 0xc3, 0xe1, 0x3d, 0x85, 0x42, 0x21, 0xbd, 0x04, 0x02, 0x01, 0xbd,
  0x45, 0x22, 0x91, 0xbd, 0x85, 0x42, 0x21, 0xbd, 0x47, 0xa3, 0xd1, 0x3d,
  0x06, 0x83, 0xc1, 0x3d, 0x65, 0x32, 0x19, 0x3e, 0x65, 0x32, 0x19, 0x3e,
  0x85, 0x42, 0x21, 0xbe, 0x85, 0x42, 0x21, 0xbe, 0x04, 0x02, 0x81, 0x3c,
  0x65, 0x32, 0x19, 0xbe, 0xc6, 0x62, 0xb1, 0xbd, 0x24, 0x12, 0x09, 0x3e,
  0x87, 0xc3, 0x61, 0xbd, 0x00, 0x00, 0x00, 0x80, 0x87, 0xc3, 0xe1, 0x3d,
  0x24, 0x12, 0x09, 0x3e, 0x04, 0x02, 0x01, 0xbc, 0xc8, 0xe3, 0xf1, 0x3d,
  0x87, 0xc3, 0xe1, 0xbd, 0x65, 0x32, 0x19, 0x3e, 0xc8, 0xe3, 0xf1, 0x3d,
  0x04, 0x02, 0x81, 0x3d, 0x06, 0x83, 0xc1, 0x3c, 0xc8, 0xe3, 0xf1, 0x3d,
  0x06, 0x83, 0xc1, 0xbd, 0x24, 0x12, 0x09, 0xbe, 0x85, 0x42, 0x21, 0xbd,
  0x85, 0x42, 0x21, 0x3e, 0x06, 0x83, 0xc1, 0x3c, 0x45, 0x22, 0x91, 0xbd,
  0x04, 0x02, 0x81, 0x3d, 0x00, 0x00, 0x00, 0x80, 0x87, 0xc3, 0x61, 0x3d,
  0x85, 0x42, 0xa1, 0xbd, 0x06, 0x83, 0xc1, 0xbd, 0x04, 0x02, 0x01, 0xbc,
  0x04, 0x02, 0x01, 0xbc, 0x04, 0x02, 0x01, 0xbc, 0x06, 0x83, 0xc1, 0xbd,
  0x65, 0x32, 0x19, 0xbe, 0x04, 0x02, 0x81, 0xbd, 0xc8, 0xe3, 0xf1, 0xbd,
  0x04, 0x02, 0x01, 0xbd, 0x45, 0x22, 0x91, 0xbd, 0xc6, 0x62, 0xb1, 0xbd,
  0x24, 0x12, 0x09, 0xbe, 0x45, 0x22, 0x11, 0xbe, 0x47, 0xa3, 0xd1, 0xbd,
  0x06, 0x83, 0xc1, 0x3c, 0x65, 0x32, 0x19, 0x3e, 0x85, 0x42, 0xa1, 0x3d,
  0x24, 0x12, 0x09, 0xbe, 0x87, 0xc3, 0xe1, 0xbd, 0x85, 0x42, 0x21, 0x3d,
  0x04, 0x02, 0x01, 0x3e, 0x04, 0x02, 0x01, 0xbc, 0x04, 0x02, 0x81, 0x3d,
  0x04, 0x02, 0x01, 0x3c, 0x85, 0x42, 0xa1, 0xbd, 0x04, 0x02, 0x01, 0x3e,
  0x04, 0x02, 0x81, 0x3d, 0x65, 0x32, 0x19, 0x3e, 0xa5, 0x52, 0x29, 0x3e,
  0x04, 0x02, 0x01, 0xbc, 0xc8, 0xe3, 0xf1, 0x3d, 0x06, 0x83, 0xc1, 0xbd,
  0x87, 0xc3, 0xe1, 0x3d, 0xc6, 0x62, 0xb1, 0x3d, 0x06, 0x83, 0xc1, 0x3c,
  0x87, 0xc3, 0xe1, 0xbd, 0x06, 0x83, 0xc1, 0x3c, 0x06, 0x83, 0x41, 0x3d,
  0x45, 0x22, 0x11, 0xbe, 0x04, 0x02, 0x81, 0xbd, 0x24, 0x12, 0x09, 0xbe,
  0xa5, 0x52, 0x29, 0xbe, 0x06, 0x83, 0xc1, 0x3d, 0x24, 0x12, 0x09, 0xbe,
  0x06, 0x83, 0xc1, 0x3c, 0x04, 0x02, 0x01, 0x3c, 0x24, 0x12, 0x09, 0x3e,
  0x85, 0x42, 0x21, 0x3e, 0x47, 0xa3, 0xd1, 0xbd, 0xa5, 0x52, 0x29, 0xbe,
  0x85, 0x42, 0x21, 0x3e, 0x24, 0x12, 0x09, 0xbe, 0x65, 0x32, 0x19, 0x3e,
  0x06, 0x83, 0xc1, 0xbc, 0x06, 0x83, 0xc1, 0x3c, 0xa5, 0x52, 0x29, 0xbe,
  0x00, 0x00, 0x00, 0x80, 0x00, 0x00, 0x00, 0x80, 0x85, 0x42, 0x21, 0x3d,
  0x85, 0x42, 0xa1, 0xbd, 0x65, 0x32, 0x19, 0x3e, 0xc6, 0x62, 0xb1, 0xbd,
  0x04, 0x02, 0x01, 0xbd, 0x04, 0x02, 0x01, 0x3d, 0x06, 0x83, 0xc1, 0xbc,
  0x85, 0x42, 0x21, 0xbe, 0x85, 0x42, 0xa1, 0xbd, 0x45, 0x22, 0x91, 0xbd,
  0x65, 0x32, 0x19, 0x3e, 0xc8, 0xe3, 0xf1, 0x3d, 0x85, 0x42, 0x21, 0xbd,
  0x06, 0x83, 0x41, 0x3d, 0x04, 0x02, 0x01, 0xbd, 0x04, 0x02, 0x01, 0x3c,
  0x45, 0x22, 0x91, 0x3d, 0x87, 0xc3, 0xe1, 0x3d, 0x06, 0x83, 0xc1, 0x3d,
  0xa5, 0x52, 0x29, 0xbe, 0x87, 0xc3, 0xe1, 0xbd, 0x04, 0x02, 0x01, 0xbc,
  0x04, 0x02, 0x81, 0x3d, 0x06, 0x83, 0x41, 0xbd, 0x24, 0x12, 0x09, 0xbe,
  0x45, 0x22, 0x91, 0xbd, 0x04, 0x02, 0x01, 0x3c, 0x47, 0xa3, 0xd1, 0x3d,
  0x04, 0x02, 0x81, 0xbd, 0x87, 0xc3, 0x61, 0xbd, 0x85, 0x42, 0x21, 0xbd,
  0x85, 0x42, 0x21, 0xbe, 0x65, 0x32, 0x19, 0x3e, 0x06, 0x83, 0x41, 0xbd,
  0x45, 0x22, 0x11, 0x3e, 0x04, 0x02, 0x81, 0x3d, 0x04, 0x02, 0x01, 0x3e,
  0x04, 0x02, 0x01, 0xbc, 0xa5, 0x52, 0x29, 0x3e, 0x04, 0x02, 0x01, 0xbe,
  0x85, 0x42, 0xa1, 0xbd, 0x85, 0x42, 0x21, 0xbe, 0x65, 0x32, 0x19, 0x3e,
  0x04, 0x02, 0x81, 0x3c, 0x04, 0x02, 0x81, 0x3d, 0xc8, 0xe3, 0xf1, 0xbd,
  0x85, 0x42, 0xa1, 0x3d, 0x45, 0x22, 0x11, 0x3e, 0x04, 0x02, 0x01, 0xbe,
  0x24, 0x12, 0x09, 0xbe, 0x85, 0x42, 0x21, 0x3e, 0x87, 0xc3, 0xe1, 0xbd,
  0x45, 0x22, 0x91, 0xbd, 0x85, 0x42, 0x21, 0xbe, 0x85, 0x42, 0xa1, 0x3d,
  0x45, 0x22, 0x91, 0xbd, 0x04, 0x02, 0x01, 0xbc, 0x24, 0x12, 0x09, 0x3e,
  0xc6, 0x62, 0xb1, 0xbd, 0x24, 0x12, 0x09, 0x3e, 0x06, 0x83, 0xc1, 0x3c,
  0x87, 0xc3, 0xe1, 0xbd, 0x04, 0x02, 0x01, 0x3d, 0x65, 0x32, 0x19, 0x3e,
  0x85, 0x42, 0xa1, 0x3d, 0x04, 0x02, 0x01, 0xbe, 0x04, 0x02, 0x81, 0x3d,
  0x04, 0x02, 0x81, 0x3c, 0x87, 0xc3, 0xe1, 0x3d, 0x45, 0x22, 0x91, 0xbd,
  0x06, 0x83, 0x41, 0xbd, 0xa5, 0x52, 0x29, 0x3e, 0x87, 0xc3, 0x61, 0x3d,
  0x04, 0x02, 0x01, 0xbd, 0x87, 0xc3, 0x61, 0x3d, 0x06, 0x83, 0x41, 0x3d,
  0x47, 0xa3, 0xd1, 0xbd, 0x85, 0x42, 0xa1, 0x3d, 0x65, 0x32, 0x19, 0xbe,
  0x85, 0x42, 0x21, 0x3e, 0x85, 0x42, 0x21, 0x3e, 0x47, 0xa3, 0xd1, 0xbd,
  0x06, 0x83, 0xc1, 0xbd, 0x06, 0x83, 0xc1, 0xbd, 0x65, 0x32, 0x19, 0x3e,
  0x04, 0x02, 0x01, 0x3d, 0x47, 0xa3, 0xd1, 0xbd, 0x87, 0xc3, 0xe1, 0x3d,
  0xc6, 0x62, 0xb1, 0x3d, 0xc6, 0x62, 0xb1, 0x3d, 0x04, 0x02, 0x01, 0x3e,
  0x85, 0x42, 0x21, 0x3e, 0x85, 0x42, 0x21, 0x3e, 0x04, 0x02, 0x01, 0x3e,
  0x45, 0x22, 0x11, 0x3e, 0x45, 0x22, 0x91, 0xbd, 0x04, 0x02, 0x01, 0x3d,
  0x45, 0x22, 0x11, 0x3e, 0x85, 0x42, 0x21, 0xbd, 0x85, 0x42, 0x21, 0x3e,
  0x04, 0x02, 0x01, 0x3e, 0x04, 0x02, 0x01, 0xbd, 0x85, 0x42, 0xa1, 0xbd,
  0x85, 0x42, 0x21, 0x3e, 0x06, 0x83, 0xc1, 0x3d, 0x45, 0x22, 0x11, 0x3e,
  0x87, 0xc3, 0xe1, 0xbd, 0x04, 0x02, 0x81, 0xbd, 0x04, 0x02, 0x01, 0xbc,
  0x04, 0x02, 0x01, 0x3e, 0x87, 0xc3, 0x61, 0xbd, 0x24, 0x12, 0x09, 0xbe,
  0x06, 0x83, 0x41, 0xbd, 0x85, 0x42, 0x21, 0xbe, 0x04, 0x02, 0x01, 0xbd,
  0x04, 0x02, 0x01, 0x3c, 0x04, 0x02, 0x01, 0xbe, 0xc8, 0xe3, 0xf1, 0xbd,
  0x04, 0x02, 0x81, 0xbc, 0xc8, 0xe3, 0xf1, 0x3d, 0x24, 0x12, 0x09, 0x3e,
  0xc8, 0xe3, 0xf1, 0xbd, 0x06, 0x83, 0xc1, 0x3c, 0x04, 0x02, 0x01, 0x3c,
  0x65, 0x32, 0x19, 0x3e, 0x87, 0xc3, 0x61, 0x3d, 0x24, 0x12, 0x09, 0xbe,
  0x04, 0x02, 0x01, 0x3e, 0x85, 0x42, 0x21, 0x3d, 0x45, 0x22, 0x11, 0xbe,
  0xc8, 0xe3, 0xf1, 0x3d, 0x87, 0xc3, 0xe1, 0x3d, 0x87, 0xc3, 0xe1, 0xbd,
  0x04, 0x02, 0x81, 0x3d, 0x87, 0xc3, 0xe1, 0xbd, 0x04, 0x02, 0x01, 0x3e,
  0x85, 0x42, 0x21, 0xbd, 0x04, 0x02, 0x01, 0x3d, 0x47, 0xa3, 0xd1, 0xbd,
  0x04, 0x02, 0x01, 0x3c, 0xc8, 0xe3, 0xf1, 0x3d, 0x87, 0xc3, 0xe1, 0x3d,
  0x04, 0x02, 0x81, 0x3d, 0x45, 0x22, 0x11, 0x3e, 0x65, 0x32, 0x19, 0xbe,
  0x45, 0x22, 0x11, 0x3e, 0x24, 0x12, 0x09, 0xbe, 0x87, 0xc3, 0xe1, 0x3d,
  0x85, 0x42, 0xa1, 0x3d, 0x04, 0x02, 0x01, 0xbd, 0x47, 0xa3, 0xd1, 0x3d,
  0x04, 0x02, 0x01, 0x3c, 0x06, 0x83, 0xc1, 0xbc, 0x47, 0xa3, 0xd1, 0x3d,
  0x04, 0x02, 0x01, 0x3c, 0x04, 0x02, 0x01, 0x3e, 0x65, 0x32, 0x19, 0x3e,
  0x06, 0x83, 0xc1, 0x3c, 0x87, 0xc3, 0x61, 0xbd, 0xc6, 0x62, 0xb1, 0x3d,
  0x00, 0x00, 0x00, 0x00, 0x04, 0x02, 0x01, 0x3d, 0x47, 0xa3, 0xd1, 0xbd,
  0x06, 0x83, 0xc1, 0xbd, 0x00, 0x00, 0x00, 0x00, 0x87, 0xc3, 0x61, 0x3d,
  0x47, 0xa3, 0xd1, 0x3d, 0x04, 0x02, 0x01, 0x3d, 0x04, 0x02, 0x81, 0x3c,
  0x45, 0x22, 0x91, 0xbd, 0x87, 0xc3, 0x61, 0x3d, 0x47, 0xa3, 0xd1, 0x3d,
  0x65, 0x32, 0x19, 0x3e, 0x45, 0x22, 0x91, 0x3d, 0x65, 0x32, 0x19, 0xbe,
  0x04, 0x02, 0x01, 0xbe, 0xa5, 0x52, 0x29, 0x3e, 0x45, 0x22, 0x11, 0xbe,
  0x87, 0xc3, 0x61, 0x3d, 0xa5, 0x52, 0x29, 0x3e, 0x04, 0x02, 0x81, 0xbd,
  0xc8, 0xe3, 0xf1, 0xbd, 0x85, 0x42, 0x21, 0xbe, 0x85, 0x42, 0x21, 0x3e,
  0x45, 0x22, 0x11, 0x3e, 0x87, 0xc3, 0xe1, 0xbd, 0x04, 0x02, 0x81, 0x3c,
  0x06, 0x83, 0xc1, 0x3d, 0x47, 0xa3, 0xd1, 0x3d, 0x06, 0x83, 0xc1, 0xbd,
  0x06, 0x83, 0x41, 0x3d, 0x87, 0xc3, 0x61, 0x3d, 0x65, 0x32, 0x19, 0x3e,
  0x85, 0x42, 0x21, 0xbe, 0x85, 0x42, 0x21, 0x3d, 0x85, 0x42, 0xa1, 0x3d,
  0x06, 0x83, 0xc1, 0x3d, 0x04, 0x02, 0x01, 0xbc, 0x04, 0x02, 0x01, 0xbc,
  0x06, 0x83, 0x41, 0xbd, 0x04, 0x02, 0x01, 0xbe, 0x85, 0x42, 0x21, 0x3d,
  0xc8, 0xe3, 0xf1, 0x3d, 0x24, 0x12, 0x09, 0xbe, 0xc8, 0xe3, 0xf1, 0xbd,
  0x45, 0x22, 0x11, 0x3e, 0xc6, 0x62, 0xb1, 0x3d, 0x87, 0xc3, 0xe1, 0xbd,
  0x47, 0xa3, 0xd1, 0x3d, 0x04, 0x02, 0x01, 0x3d, 0x45, 0x22, 0x91, 0xbd,
  0x45, 0x22, 0x11, 0xbe, 0x45, 0x22, 0x11, 0x3e, 0x24, 0x12, 0x09, 0x3e,
  0x85, 0x42, 0x21, 0x3d, 0x47, 0xa3, 0xd1, 0xbd, 0x85, 0x42, 0x21, 0xbe,
  0x85, 0x42, 0xa1, 0xbd, 0x85, 0x42, 0x21, 0xbe, 0x24, 0x12, 0x09, 0xbe,
  0x87, 0xc3, 0x61, 0xbd, 0x85, 0x42, 0x21, 0x3d, 0x47, 0xa3, 0xd1, 0xbd,
  0x04, 0x02, 0x01, 0x3c, 0x85, 0x42, 0x21, 0x3e, 0x06, 0x83, 0xc1, 0x3d,
  0x45, 0x22, 0x11, 0xbe, 0x47, 0xa3, 0xd1, 0xbd, 0x04, 0x02, 0x01, 0x3d,
  0x06, 0x83, 0x41, 0x3d, 0x87, 0xc3, 0x61, 0xbd, 0x87, 0xc3, 0xe1, 0xbd,
  0xc8, 0xe3, 0xf1, 0xbd, 0xc6, 0x62, 0xb1, 0xbd, 0x04, 0x02, 0x01, 0x3e,
  0x04, 0x02, 0x81, 0xbc, 0x04, 0x02, 0x01, 0xbd, 0x24, 0x12, 0x09, 0xbe,
  0x85, 0x42, 0xa1, 0x3d, 0x04, 0x02, 0x01, 0x3d, 0x45, 0x22, 0x91, 0x3d,
  0x85, 0x42, 0x21, 0xbe, 0x87, 0xc3, 0xe1, 0x3d, 0x06, 0x83, 0x41, 0xbd,
  0x85, 0x42, 0x21, 0x3e, 0x85, 0x42, 0x21, 0x3d, 0x45, 0x22, 0x11, 0xbe,
  0x04, 0x02, 0x01, 0xbd, 0x65, 0x32, 0x19, 0x3e, 0x06, 0x83, 0xc1, 0x3d,
  0x06, 0x83, 0x41, 0xbd, 0x45, 0x22, 0x11, 0x3e, 0x85, 0x42, 0x21, 0xbe,
  0x06, 0x83, 0xc1, 0xbc, 0x24, 0x12, 0x09, 0x3e, 0x00, 0x00, 0x00, 0x00,
  0x04, 0x02, 0x01, 0xbe, 0xc6, 0x62, 0xb1, 0x3d, 0x04, 0x02, 0x01, 0x3c,
  0x47, 0xa3, 0xd1, 0xbd, 0xc6, 0x62, 0xb1, 0x3d, 0x04, 0x02, 0x81, 0xbd,
  0x47, 0xa3, 0xd1, 0x3d, 0x06, 0x83, 0xc1, 0xbd, 0x65, 0x32, 0x19, 0x3e,
  0x06, 0x83, 0xc1, 0x3d, 0x45, 0x22, 0x11, 0x3e, 0x04, 0x02, 0x81, 0x3d,
  0x85, 0x42, 0x21, 0x3d, 0x45, 0x22, 0x91, 0xbd, 0x06, 0x83, 0xc1, 0xbc,
  0x85, 0x42, 0x21, 0x3e, 0x04, 0x02, 0x01, 0x3c, 0x87, 0xc3, 0xe1, 0xbd,
  0x85, 0x42, 0x21, 0xbe, 0x04, 0x02, 0x01, 0xbe, 0x06, 0x83, 0xc1, 0xbc,
  0x06, 0x83, 0xc1, 0x3d, 0x85, 0x42, 0x21, 0x3d, 0x04, 0x02, 0x01, 0xbe,
  0xa5, 0x52, 0x29, 0xbe, 0xc6, 0x62, 0xb1, 0x3d, 0x04, 0x02, 0x01, 0xbc,
  0x65, 0x32, 0x19, 0xbe, 0x06, 0x83, 0x41, 0x3d, 0x04, 0x02, 0x01, 0x3e,
  0x06, 0x83, 0xc1, 0x3d, 0x06, 0x83, 0x41, 0x3d, 0x04, 0x02, 0x01, 0xbe,
  0x04, 0x02, 0x81, 0x3c, 0x04, 0x02, 0x81, 0x3d, 0xa5, 0x52, 0x29, 0x3e,
  0x06, 0x83, 0xc1, 0xbd, 0x04, 0x02, 0x01, 0x3e, 0x87, 0xc3, 0x61, 0x3d,
  0x85, 0x42, 0xa1, 0x3d, 0x06, 0x83, 0xc1, 0x3d, 0x06, 0x83, 0x41, 0xbd,
  0x65, 0x32, 0x19, 0x3e, 0x24, 0x12, 0x09, 0xbe, 0x85, 0x42, 0x21, 0xbd,
  0x65, 0x32, 0x19, 0x3e, 0x47, 0xa3, 0xd1, 0x3d, 0x45, 0x22, 0x11, 0x3e,
  0x04, 0x02, 0x01, 0xbd, 0x04, 0x02, 0x01, 0x3e, 0x65, 0x32, 0x19, 0x3e,
  0x85, 0x42, 0x21, 0x3e, 0xa5, 0x52, 0x29, 0x3e, 0x04, 0x02, 0x01, 0xbd,
  0x04, 0x02, 0x01, 0x3e, 0x06, 0x83, 0x41, 0xbd, 0x06, 0x83, 0xc1, 0x3c,
  0x04, 0x02, 0x81, 0xbd, 0x06, 0x83, 0xc1, 0xbc, 0x04, 0x02, 0x01, 0x3c,
  0x04, 0x02, 0x01, 0x3c, 0x06, 0x83, 0x41, 0x3d, 0x04, 0x02, 0x81, 0x3c,
  0x04, 0x02, 0x01, 0xbc, 0x45, 0x22, 0x91, 0xbd, 0x06, 0x83, 0x41, 0xbd,
  0x04, 0x02, 0x01, 0x3d, 0x06, 0x83, 0xc1, 0x3d, 0x00, 0x00, 0x00, 0x80,
  0x65, 0x32, 0x19, 0x3e, 0xc8, 0xe3, 0xf1, 0x3d, 0x04, 0x02, 0x01, 0xbd,
  0x47, 0xa3, 0xd1, 0xbd, 0x45, 0x22, 0x11, 0xbe, 0x87, 0xc3, 0x61, 0x3d,
  0x45, 0x22, 0x11, 0x3e, 0xa5, 0x52, 0x29, 0x3e, 0x85, 0x42, 0x21, 0x3e,
  0x24, 0x12, 0x09, 0x3e, 0x04, 0x02, 0x01, 0xbc, 0x45, 0x22, 0x91, 0x3d,
  0x85, 0x42, 0x21, 0x3e, 0x04, 0x02, 0x01, 0x3d, 0x00, 0x00, 0x00, 0x80,
  0x04, 0x02, 0x01, 0xbd, 0x45, 0x22, 0x91, 0x3d, 0x87, 0xc3, 0xe1, 0xbd,
  0x04, 0x02, 0x81, 0xbc, 0xa5, 0x52, 0x29, 0x3e, 0x04, 0x02, 0x81, 0xbd,
  0x06, 0x83, 0xc1, 0x3d, 0x85, 0x42, 0x21, 0x3d, 0x00, 0x00, 0x00, 0x80,
  0x24, 0x12, 0x09, 0x3e, 0x87, 0xc3, 0x61, 0x3d, 0x87, 0xc3, 0x61, 0xbd,
  0x85, 0x42, 0x21, 0x3e, 0x65, 0x32, 0x19, 0xbe, 0xc6, 0x62, 0xb1, 0xbd,
  0x04, 0x02, 0x81, 0x3d, 0xc8, 0xe3, 0xf1, 0xbd, 0x24, 0x12, 0x09, 0xbe,
  0x24, 0x12, 0x09, 0x3e, 0xc8, 0xe3, 0xf1, 0xbd, 0x47, 0xa3, 0xd1, 0xbd,
  0x85, 0x42, 0x21, 0xbe, 0x45, 0x22, 0x91, 0xbd, 0xa5, 0x52, 0x29, 0x3e,
  0x04, 0x02, 0x01, 0xbe, 0x85, 0x42, 0xa1, 0xbd, 0x04, 0x02, 0x81, 0xbc,
  0x06, 0x83, 0xc1, 0x3c, 0x65, 0x32, 0x19, 0xbe, 0x45, 0x22, 0x91, 0x3d,
  0x04, 0x02, 0x01, 0xbd, 0x06, 0x83, 0xc1, 0xbd, 0x06, 0x83, 0xc1, 0x3d,
  0x87, 0xc3, 0x61, 0x3d, 0x85, 0x42, 0x21, 0xbe, 0xa5, 0x52, 0x29, 0xbe,
  0x87, 0xc3, 0xe1, 0xbd, 0x04, 0x02, 0x01, 0x3e, 0xc6, 0x62, 0xb1, 0x3d,
  0xc8, 0xe3, 0xf1, 0x3d, 0x47, 0xa3, 0xd1, 0xbd, 0x87, 0xc3, 0x61, 0xbd,
  0x04, 0x02, 0x81, 0xbc, 0x85, 0x42, 0xa1, 0x3d, 0x06, 0x83, 0x41, 0xbd,
  0x06, 0x83, 0xc1, 0x3d, 0xc8, 0xe3, 0xf1, 0x3d, 0x04, 0x02, 0x81, 0x3d,
  0x65, 0x32, 0x19, 0xbe, 0x04, 0x02, 0x81, 0x3d, 0x06, 0x83, 0xc1, 0x3c,
  0x00, 0x00, 0x00, 0x80, 0x85, 0x42, 0x21, 0x3e, 0xc8, 0xe3, 0xf1, 0xbd,
  0x04, 0x02, 0x81, 0x3d, 0xc8, 0xe3, 0xf1, 0xbd, 0x87, 0xc3, 0xe1, 0xbd,
  0x65, 0x32, 0x19, 0xbe, 0x85, 0x42, 0x21, 0x3d, 0x45, 0x22, 0x91, 0xbd,
  0x65, 0x32, 0x19, 0xbe, 0xa5, 0x52, 0x29, 0xbe, 0x04, 0x02, 0x01, 0xbd,
  0x85, 0x42, 0xa1, 0x3d, 0x06, 0x83, 0x41, 0x3d, 0x04, 0x02, 0x01, 0x3d,
  0x04, 0x02, 0x01, 0xbe, 0x47, 0xa3, 0xd1, 0x3d, 0x45, 0x22, 0x91, 0x3d,
  0xc8, 0xe3, 0xf1, 0x3d, 0x45, 0x22, 0x91, 0x3d, 0x85, 0x42, 0xa1, 0xbd,
  0x06, 0x83, 0x41, 0xbd, 0x04, 0x02, 0x81, 0x3d, 0x04, 0x02, 0x81, 0xbc,
  0x04, 0x02, 0x81, 0x3c, 0x85, 0x42, 0x21, 0xbe, 0x04, 0x02, 0x01, 0xbd,
  0x87, 0xc3, 0x61, 0xbd, 0x06, 0x83, 0xc1, 0x3c, 0x06, 0x83, 0xc1, 0x3c,
  0x06, 0x83, 0xc1, 0x3c, 0x45, 0x22, 0x91, 0xbd, 0x47, 0xa3, 0xd1, 0xbd,
  0x85, 0x42, 0x21, 0xbd, 0x65, 0x32, 0x19, 0xbe, 0x87, 0xc3, 0x61, 0xbd,
  0x00, 0x00, 0x00, 0x80, 0x04, 0x02, 0x01, 0xbe, 0x06, 0x83, 0x41, 0x3d,
  0xc8, 0xe3, 0xf1, 0x3d, 0x85, 0x42, 0x21, 0xbe, 0x45, 0x22, 0x91, 0xbd,
  0x06, 0x83, 0xc1, 0x3c, 0x06, 0x83, 0xc1, 0xbd, 0x24, 0x12, 0x09, 0xbe,
  0x45, 0x22, 0x91, 0x3d, 0x06, 0x83, 0x41, 0x3d, 0x06, 0x83, 0xc1, 0xbc,
  0x45, 0x22, 0x91, 0x3d, 0x06, 0x83, 0x41, 0x3d, 0xa5, 0x52, 0x29, 0x3e,
  0xc6, 0x62, 0xb1, 0xbd, 0x65, 0x32, 0x19, 0xbe, 0x45, 0x22, 0x91, 0x3d,
  0x85, 0x42, 0xa1, 0xbd, 0x24, 0x12, 0x09, 0x3e, 0x45, 0x22, 0x11, 0xbe,
  0xc8, 0xe3, 0xf1, 0x3d, 0x24, 0x12, 0x09, 0x3e, 0x04, 0x02, 0x01, 0xbd,
  0x06, 0x83, 0xc1, 0xbc, 0x85, 0x42, 0x21, 0x3d, 0x45, 0x22, 0x11, 0x3e,
  0x04, 0x02, 0x81, 0xbc, 0x45, 0x22, 0x91, 0x3d, 0x06, 0x83, 0x41, 0xbd,
  0x85, 0x42, 0x21, 0x3e, 0x85, 0x42, 0x21, 0x3e, 0xa5, 0x52, 0x29, 0x3e,
  0xa5, 0x52, 0x29, 0x3e, 0xc6, 0x62, 0xb1, 0x3d, 0x06, 0x83, 0xc1, 0xbc,
  0x04, 0x02, 0x81, 0x3d, 0x04, 0x02, 0x81, 0x3c, 0xc8, 0xe3, 0xf1, 0x3d,
  0x06, 0x83, 0xc1, 0xbc, 0x24, 0x12, 0x09, 0xbe, 0x85, 0x42, 0x21, 0xbd,
  0x45, 0x22, 0x11, 0xbe, 0x04, 0x02, 0x01, 0x3e, 0x45, 0x22, 0x11, 0xbe,
  0x65, 0x32, 0x19, 0x3e, 0x85, 0x42, 0x21, 0x3d, 0x85, 0x42, 0xa1, 0xbd,
  0x04, 0x02, 0x01, 0xbe, 0x45, 0x22, 0x91, 0xbd, 0x04, 0x02, 0x81, 0x3d,
  0x06, 0x83, 0xc1, 0xbd, 0x87, 0xc3, 0xe1, 0xbd, 0x24, 0x12, 0x09, 0x3e,
  0x85, 0x42, 0x21, 0x3e, 0x87, 0xc3, 0xe1, 0xbd, 0x04, 0x02, 0x01, 0xbc,
  0x85, 0x42, 0x21, 0xbd, 0x06, 0x83, 0xc1, 0xbc, 0x06, 0x83, 0xc1, 0xbd,
  0x04, 0x02, 0x81, 0x3c, 0x85, 0x42, 0x21, 0x3e, 0xc6, 0x62, 0xb1, 0x3d,
  0x06, 0x83, 0xc1, 0xbd, 0xc8, 0xe3, 0xf1, 0x3d, 0x87, 0xc3, 0xe1, 0xbd,
  0x00, 0x00, 0x00, 0x80, 0x85, 0x42, 0xa1, 0xbd, 0xc6, 0x62, 0xb1, 0x3d,
  0x06, 0x83, 0xc1, 0xbc, 0x47, 0xa3, 0xd1, 0xbd, 0x04, 0x02, 0x81, 0x3d,
  0x87, 0xc3, 0xe1, 0xbd, 0xc8, 0xe3, 0xf1, 0x3d, 0x65, 0x32, 0x19, 0xbe,
  0x24, 0x12, 0x09, 0x3e, 0x24, 0x12, 0x09, 0x3e, 0x06, 0x83, 0x41, 0xbd,
  0x87, 0xc3, 0x61, 0xbd, 0xa5, 0x52, 0x29, 0x3e, 0x47, 0xa3, 0xd1, 0xbd,
  0x87, 0xc3, 0x61, 0xbd, 0x47, 0xa3, 0xd1, 0xbd, 0x04, 0x02, 0x01, 0x3e,
  0x06, 0x83, 0xc1, 0xbc, 0x04, 0x02, 0x81, 0xbd, 0x45, 0x22, 0x91, 0xbd,
  0xc8, 0xe3, 0xf1, 0xbd, 0x04, 0x02, 0x81, 0x3c, 0xc6, 0x62, 0xb1, 0xbd,
  0x85, 0x42, 0xa1, 0x3d, 0x04, 0x02, 0x81, 0x3d, 0x65, 0x32, 0x19, 0xbe,
  0x04, 0x02, 0x01, 0x3d, 0x06, 0x83, 0x41, 0x3d, 0x87, 0xc3, 0xe1, 0x3d,
  0x24, 0x12, 0x09, 0x3e, 0xc6, 0x62, 0xb1, 0x3d, 0x47, 0xa3, 0xd1, 0xbd,
  0x04, 0x02, 0x01, 0xbe, 0x04, 0x02, 0x81, 0xbc, 0x06, 0x83, 0xc1, 0x3c,
  0x04, 0x02, 0x81, 0x3d, 0x06, 0x83, 0x41, 0x3d, 0x04, 0x02, 0x01, 0xbd,
  0x04, 0x02, 0x01, 0x3d, 0x04, 0x02, 0x81, 0xbd, 0x87, 0xc3, 0x61, 0xbd,
  0x06, 0x83, 0xc1, 0x3d, 0x85, 0x42, 0x21, 0x3e, 0x04, 0x02, 0x81, 0x3d,
  0x65, 0x32, 0x19, 0x3e, 0x45, 0x22, 0x11, 0xbe, 0x87, 0xc3, 0xe1, 0xbd,
  0x00, 0x00, 0x00, 0x00, 0x04, 0x02, 0x81, 0xbc, 0x24, 0x12, 0x09, 0xbe,
  0x04, 0x02, 0x81, 0x3d, 0x85, 0x42, 0xa1, 0xbd, 0x85, 0x42, 0x21, 0x3e,
  0x24, 0x12, 0x09, 0x3e, 0x87, 0xc3, 0xe1, 0xbd, 0x87, 0xc3, 0xe1, 0x3d,
  0x85, 0x42, 0x21, 0x3e, 0x04, 0x02, 0x01, 0x3e, 0x06, 0x83, 0xc1, 0x3d,
  0x24, 0x12, 0x09, 0xbe, 0x85, 0x42, 0xa1, 0xbd, 0x65, 0x32, 0x19, 0x3e,
  0x85, 0x42, 0x21, 0x3e, 0x00, 0x00, 0x00, 0x00, 0x24, 0x12, 0x09, 0xbe,
  0xa5, 0x52, 0x29, 0xbe, 0x87, 0xc3, 0x61, 0xbd, 0x06, 0x83, 0xc1, 0xbc,
  0x06, 0x83, 0xc1, 0xbc, 0x06, 0x83, 0x41, 0xbd, 0x04, 0x02, 0x81, 0xbd,
  0x00, 0x00, 0x00, 0x00, 0x45, 0x22, 0x91, 0x3d, 0x04, 0x02, 0x01, 0xbe,
  0xc6, 0x62, 0xb1, 0xbd, 0x45, 0x22, 0x91, 0x3d, 0x87, 0xc3, 0x61, 0xbd,
  0x87, 0xc3, 0xe1, 0x3d, 0x87, 0xc3, 0xe1, 0xbd, 0x06, 0x83, 0x41, 0x3d,
  0x85, 0x42, 0x21, 0xbe, 0x45, 0x22, 0x91, 0xbd, 0x85, 0x42, 0xa1, 0x3d,
  0x65, 0x32, 0x19, 0x3e, 0x04, 0x02, 0x01, 0x3c, 0x45, 0x22, 0x11, 0xbe,
  0x24, 0x12, 0x09, 0x3e, 0x65, 0x32, 0x19, 0x3e, 0x85, 0x42, 0x21, 0xbd,
  0x06, 0x83, 0x41, 0xbd, 0x85, 0x42, 0xa1, 0xbd, 0x04, 0x02, 0x81, 0xbd,
  0x06, 0x83, 0xc1, 0x3d, 0x47, 0xa3, 0xd1, 0xbd, 0x04, 0x02, 0x01, 0x3d,
  0x87, 0xc3, 0x61, 0xbd, 0x06, 0x83, 0xc1, 0xbd, 0x24, 0x12, 0x09, 0x3e,
  0x47, 0xa3, 0xd1, 0xbd, 0x47, 0xa3, 0xd1, 0xbd, 0x87, 0xc3, 0x61, 0xbd,
  0x04, 0x02, 0x01, 0xbd, 0x04, 0x02, 0x01, 0xbd, 0xc6, 0x62, 0xb1, 0x3d,
  0x85, 0x42, 0x21, 0xbd, 0x06, 0x83, 0x41, 0x3d, 0x85, 0x42, 0x21, 0xbe,
  0x87, 0xc3, 0xe1, 0xbd, 0x87, 0xc3, 0xe1, 0x3d, 0x04, 0x02, 0x81, 0x3d,
  0x06, 0x83, 0x41, 0x3d, 0x87, 0xc3, 0xe1, 0x3d, 0x87, 0xc3, 0x61, 0x3d,
  0xa5, 0x52, 0x29, 0xbe, 0x87, 0xc3, 0xe1, 0x3d, 0x06, 0x83, 0xc1, 0x3d,
  0x04, 0x02, 0x01, 0x3c, 0x65, 0x32, 0x19, 0xbe, 0x04, 0x02, 0x01, 0x3e,
  0x45, 0x22, 0x91, 0xbd, 0x85, 0x42, 0xa1, 0x3d, 0x85, 0x42, 0x21, 0x3d,
  0x06, 0x83, 0x41, 0xbd, 0x85, 0x42, 0x21, 0x3d, 0x04, 0x02, 0x01, 0xbe,
  0x06, 0x83, 0xc1, 0xbd, 0x85, 0x42, 0x21, 0x3d, 0xc6, 0x62, 0xb1, 0x3d,
  0x04, 0x02, 0x01, 0xbd, 0x04, 0x02, 0x81, 0xbd, 0x06, 0x83, 0x41, 0x3d,
  0x06, 0x83, 0x41, 0xbd, 0x87, 0xc3, 0x61, 0xbd, 0x85, 0x42, 0xa1, 0xbd,
  0x04, 0x02, 0x01, 0xbc, 0x06, 0x83, 0xc1, 0xbc, 0x47, 0xa3, 0xd1, 0xbd,
  0x87, 0xc3, 0xe1, 0xbd, 0x06, 0x83, 0xc1, 0xbc, 0x87, 0xc3, 0xe1, 0x3d,
  0xc6, 0x62, 0xb1, 0x3d, 0x65, 0x32, 0x19, 0x3e, 0x24, 0x12, 0x09, 0xbe,
  0x65, 0x32, 0x19, 0xbe, 0x04, 0x02, 0x01, 0xbe, 0xc6, 0x62, 0xb1, 0xbd,
  0x06, 0x83, 0xc1, 0x3d, 0x24, 0x12, 0x09, 0xbe, 0x45, 0x22, 0x91, 0xbd,
  0x06, 0x83, 0xc1, 0x3d, 0x06, 0x83, 0x41, 0x3d, 0x85, 0x42, 0x21, 0xbe,
  0x04, 0x02, 0x81, 0xbc, 0x85, 0x42, 0x21, 0x3d, 0x65, 0x32, 0x19, 0x3e,
  0x85, 0x42, 0xa1, 0xbd, 0x24, 0x12, 0x09, 0xbe, 0x45, 0x22, 0x91, 0xbd,
  0x04, 0x02, 0x81, 0xbc, 0x00, 0x00, 0x00, 0x80, 0x06, 0x83, 0xc1, 0x3d,
  0x45, 0x22, 0x11, 0x3e, 0x04, 0x02, 0x01, 0xbc, 0x65, 0x32, 0x19, 0xbe,
  0x65, 0x32, 0x19, 0xbe, 0x04, 0x02, 0x81, 0xbd, 0x87, 0xc3, 0x61, 0x3d,
  0x00, 0x00, 0x00, 0x00, 0x06, 0x83, 0xc1, 0x3c, 0x04, 0x02, 0x01, 0xbe,
  0xa5, 0x52, 0x29, 0xbe, 0x06, 0x83, 0x41, 0xbd, 0x65, 0x32, 0x19, 0xbe,
  0xc6, 0x62, 0xb1, 0xbd, 0x04, 0x02, 0x81, 0xbc, 0x06, 0x83, 0xc1, 0xbd,
  0x85, 0x42, 0x21, 0x3d, 0xc8, 0xe3, 0xf1, 0xbd, 0xa5, 0x52, 0x29, 0xbe,
  0xc8, 0xe3, 0xf1, 0xbd, 0x85, 0x42, 0x21, 0x3e, 0x00, 0x00, 0x00, 0x00,
  0x04, 0x02, 0x81, 0xbd, 0x04, 0x02, 0x01, 0x3e, 0x06, 0x83, 0x41, 0x3d,
  0x06, 0x83, 0xc1, 0x3c, 0xa5, 0x52, 0x29, 0x3e, 0x04, 0x02, 0x01, 0x3e,
  0x24, 0x12, 0x09, 0x3e, 0x04, 0x02, 0x81, 0x3c, 0x45, 0x22, 0x91, 0x3d,
  0x04, 0x02, 0x01, 0x3c, 0x04, 0x02, 0x01, 0x3e, 0xc6, 0x62, 0xb1, 0xbd,
  0xc6, 0x62, 0xb1, 0xbd, 0xc8, 0xe3, 0xf1, 0x3d, 0x04, 0x02, 0x01, 0xbd,
  0x45, 0x22, 0x11, 0xbe, 0x24, 0x12, 0x09, 0x3e, 0x45, 0x22, 0x11, 0xbe,
  0x47, 0xa3, 0xd1, 0x3d, 0x85, 0x42, 0x21, 0xbe, 0x45, 0x22, 0x91, 0xbd,
  0xc6, 0x62, 0xb1, 0xbd, 0x85, 0x42, 0xa1, 0xbd, 0x06, 0x83, 0xc1, 0x3c,
  0x04, 0x02, 0x81, 0xbd, 0x04, 0x02, 0x01, 0x3c, 0xc6, 0x62, 0xb1, 0xbd,
  0x85, 0x42, 0x21, 0x3d, 0x04, 0x02, 0x01, 0xbe, 0xc6, 0x62, 0xb1, 0xbd,
  0x45, 0x22, 0x91, 0xbd, 0x04, 0x02, 0x01, 0x3d, 0xc6, 0x62, 0xb1, 0xbd,
  0x45, 0x22, 0x11, 0xbe, 0xc8, 0xe3, 0xf1, 0xbd, 0x87, 0xc3, 0x61, 0xbd,
  0x04, 0x02, 0x01, 0x3d, 0x45, 0x22, 0x91, 0xbd, 0x04, 0x02, 0x01, 0x3d,
  0x45, 0x22, 0x91, 0x3d, 0x04, 0x02, 0x01, 0x3e, 0x06, 0x83, 0xc1, 0x3c,
  0x65, 0x32, 0x19, 0xbe, 0xc8, 0xe3, 0xf1, 0xbd, 0x04, 0x02, 0x81, 0x3c,
  0x04, 0x02, 0x01, 0x3c, 0x00, 0x00, 0x00, 0x00, 0x04, 0x02, 0x81, 0xbd,
  0x24, 0x12, 0x09, 0x3e, 0x85, 0x42, 0x21, 0xbe, 0xc8, 0xe3, 0xf1, 0xbd,
  0x04, 0x02, 0x81, 0xbc, 0xc6, 0x62, 0xb1, 0x3d, 0x47, 0xa3, 0xd1, 0xbd,
  0xc8, 0xe3, 0xf1, 0xbd, 0x04, 0x02, 0x01, 0xbe, 0x45, 0x22, 0x11, 0xbe,
  0x85, 0x42, 0xa1, 0xbd, 0x24, 0x12, 0x09, 0xbe, 0x04, 0x02, 0x01, 0x3d,
  0x47, 0xa3, 0xd1, 0x3d, 0x65, 0x32, 0x19, 0xbe, 0xc6, 0x62, 0xb1, 0x3d,
  0xc6, 0x62, 0xb1, 0xbd, 0x65, 0x32, 0x19, 0xbe, 0x06, 0x83, 0x41, 0x3d,
  0x47, 0xa3, 0xd1, 0x3d, 0x04, 0x02, 0x81, 0x3d, 0xc8, 0xe3, 0xf1, 0x3d,
  0x24, 0x12, 0x09, 0xbe, 0x45, 0x22, 0x91, 0xbd, 0x04, 0x02, 0x81, 0x3d,
  0x85, 0x42, 0xa1, 0xbd, 0xc8, 0xe3, 0xf1, 0xbd, 0xc6, 0x62, 0xb1, 0x3d,
  0x87, 0xc3, 0xe1, 0x3d, 0x85, 0x42, 0x21, 0x3e, 0x85, 0x42, 0x21, 0x3e,
  0xc6, 0x62, 0xb1, 0x3d, 0x45, 0x22, 0x11, 0xbe, 0x87, 0xc3, 0x61, 0xbd,
  0x47, 0xa3, 0xd1, 0x3d, 0x04, 0x02, 0x81, 0xbc, 0xc6, 0x62, 0xb1, 0x3d,
  0x45, 0x22, 0x91, 0x3d, 0x06, 0x83, 0x41, 0x3d, 0xc6, 0x62, 0xb1, 0xbd,
  0x04, 0x02, 0x81, 0x3d, 0xc6, 0x62, 0xb1, 0x3d, 0x45, 0x22, 0x11, 0xbe,
  0x06, 0x83, 0xc1, 0x3d, 0x87, 0xc3, 0x61, 0xbd, 0x85, 0x42, 0x21, 0x3d,
  0x04, 0x02, 0x81, 0x3c, 0x04, 0x02, 0x01, 0x3e, 0x45, 0x22, 0x11, 0xbe,
  0xc6, 0x62, 0xb1, 0xbd, 0x45, 0x22, 0x11, 0x3e, 0x06, 0x83, 0xc1, 0x3c,
  0x87, 0xc3, 0x61, 0xbd, 0x45, 0x22, 0x11, 0xbe, 0x45, 0x22, 0x11, 0xbe,
  0x45, 0x22, 0x11, 0x3e, 0x85, 0x42, 0x21, 0x3e, 0x06, 0x83, 0xc1, 0xbd,
  0x45, 0x22, 0x11, 0x3e, 0x87, 0xc3, 0xe1, 0x3d, 0x85, 0x42, 0x21, 0xbe,
  0x04, 0x02, 0x81, 0xbc, 0x04, 0x02, 0x01, 0x3e, 0x85, 0x42, 0xa1, 0x3d,
  0x04, 0x02, 0x01, 0xbd, 0x45, 0x22, 0x91, 0xbd, 0x00, 0x00, 0x00, 0x00,
  0xa5, 0x52, 0x29, 0xbe, 0x47, 0xa3, 0xd1, 0xbd, 0x04, 0x02, 0x01, 0xbe,
  0x04, 0x02, 0x01, 0xbe, 0x06, 0x83, 0xc1, 0xbc, 0x00, 0x00, 0x00, 0x00,
  0x47, 0xa3, 0xd1, 0xbd, 0x06, 0x83, 0x41, 0x3d, 0x04, 0x02, 0x01, 0xbe,
  0xc6, 0x62, 0xb1, 0x3d, 0x87, 0xc3, 0x61, 0x3d, 0x87, 0xc3, 0xe1, 0xbd,
  0x85, 0x42, 0xa1, 0x3d, 0x85, 0x42, 0xa1, 0x3d, 0x04, 0x02, 0x01, 0x3e,
  0x04, 0x02, 0x81, 0x3d, 0x47, 0xa3, 0xd1, 0xbd, 0x87, 0xc3, 0x61, 0xbd,
  0x04, 0x02, 0x01, 0x3d, 0xc8, 0xe3, 0xf1, 0xbd, 0x87, 0xc3, 0xe1, 0x3d,
  0x45, 0x22, 0x11, 0xbe, 0x85, 0x42, 0xa1, 0x3d, 0x45, 0x22, 0x91, 0x3d,
  0x06, 0x83, 0xc1, 0x3c, 0xc6, 0x62, 0xb1, 0x3d, 0x87, 0xc3, 0xe1, 0xbd,
  0x04, 0x02, 0x01, 0xbe, 0x87, 0xc3, 0x61, 0x3d, 0x04, 0x02, 0x01, 0xbc,
  0x85, 0x42, 0xa1, 0xbd, 0xc8, 0xe3, 0xf1, 0xbd, 0x06, 0x83, 0xc1, 0x3d,
  0x06, 0x83, 0xc1, 0xbd, 0x85, 0x42, 0x21, 0x3e, 0x06, 0x83, 0xc1, 0x3c,
  0xc6, 0x62, 0xb1, 0x3d, 0x00, 0x00, 0x00, 0x80, 0x06, 0x83, 0xc1, 0xbc,
  0x45, 0x22, 0x91, 0xbd, 0x04, 0x02, 0x01, 0x3d, 0x24, 0x12, 0x09, 0x3e,
  0x04, 0x02, 0x01, 0x3e, 0xc8, 0xe3, 0xf1, 0x3d, 0xc8, 0xe3, 0xf1, 0x3d,
  0x04, 0x02, 0x01, 0x3e, 0x87, 0xc3, 0x61, 0x3d, 0x45, 0x22, 0x11, 0x3e,
  0x04, 0x02, 0x01, 0x3d, 0x06, 0x83, 0xc1, 0xbc, 0x87, 0xc3, 0x61, 0xbd,
  0xa5, 0x52, 0x29, 0xbe, 0xc6, 0x62, 0xb1, 0xbd, 0x87, 0xc3, 0x61, 0x3d,
  0xc6, 0x62, 0xb1, 0x3d, 0x87, 0xc3, 0x61, 0xbd, 0x45, 0x22, 0x11, 0xbe,
  0x24, 0x12, 0x09, 0x3e, 0x47, 0xa3, 0xd1, 0x3d, 0x85, 0x42, 0xa1, 0x3d,
  0x45, 0x22, 0x91, 0x3d, 0x47, 0xa3, 0xd1, 0xbd, 0x45, 0x22, 0x11, 0x3e,
  0x85, 0x42, 0x21, 0xbe, 0x85, 0x42, 0xa1, 0x3d, 0x87, 0xc3, 0x61, 0x3d,
  0x24, 0x12, 0x09, 0x3e, 0x04, 0x02, 0x01, 0x3d, 0x04, 0x02, 0x01, 0xbc,
  0x24, 0x12, 0x09, 0x3e, 0x87, 0xc3, 0x61, 0xbd, 0x24, 0x12, 0x09, 0xbe,
  0x06, 0x83, 0xc1, 0x3c, 0x65, 0x32, 0x19, 0x3e, 0x85, 0x42, 0x21, 0x3d,
  0x85, 0x42, 0x21, 0x3e, 0x04, 0x02, 0x01, 0xbe, 0x65, 0x32, 0x19, 0x3e,
  0xc6, 0x62, 0xb1, 0xbd, 0xc6, 0x62, 0xb1, 0xbd, 0xc6, 0x62, 0xb1, 0xbd,
  0x06, 0x83, 0xc1, 0x3d, 0xc8, 0xe3, 0xf1, 0xbd, 0x45, 0x22, 0x91, 0x3d,
  0xc8, 0xe3, 0xf1, 0x3d, 0x47, 0xa3, 0xd1, 0xbd, 0x65, 0x32, 0x19, 0x3e,
  0x06, 0x83, 0x41, 0x3d, 0x06, 0x83, 0x41, 0xbd, 0x47, 0xa3, 0xd1, 0xbd,
  0x45, 0x22, 0x91, 0xbd, 0x85, 0x42, 0xa1, 0xbd, 0x06, 0x83, 0x41, 0xbd,
  0x45, 0x22, 0x11, 0x3e, 0x04, 0x02, 0x81, 0xbd, 0x47, 0xa3, 0xd1, 0x3d,
  0x85, 0x42, 0x21, 0xbe, 0x04, 0x02, 0x01, 0x3c, 0x00, 0x00, 0x00, 0x00,
  0x85, 0x42, 0x21, 0x3d, 0x85, 0x42, 0xa1, 0x3d, 0x04, 0x02, 0x01, 0xbe,
  0x45, 0x22, 0x91, 0x3d, 0x47, 0xa3, 0xd1, 0x3d, 0x06, 0x83, 0xc1, 0x3d,
  0x87, 0xc3, 0xe1, 0x3d, 0x04, 0x02, 0x81, 0x3c, 0x87, 0xc3, 0x61, 0x3d,
  0x85, 0x42, 0x21, 0x3e, 0xc8, 0xe3, 0xf1, 0xbd, 0x87, 0xc3, 0x61, 0x3d,
  0x04, 0x02, 0x81, 0x3d, 0x36, 0xf1, 0xff, 0xff, 0x04, 0x00, 0x00, 0x00,
  0x80, 0x04, 0x00, 0x00, 0x06, 0x83, 0xc1, 0x3d, 0xc8, 0xe3, 0xf1, 0xbd,
  0x67, 0xb3, 0x59, 0x3e, 0xc6, 0x62, 0xb1, 0xbd, 0x85, 0x42, 0x21, 0xbd,
  0x87, 0xc3, 0x61, 0xbd, 0xc8, 0xe3, 0x71, 0x3e, 0x04, 0x02, 0x81, 0x3d,
  0x45, 0x22, 0x11, 0xbe, 0x06, 0x83, 0x41, 0x3d, 0x45, 0x22, 0x11, 0xbe,
  0x26, 0x93, 0x49, 0xbe, 0xc6, 0x62, 0xb1, 0xbd, 0xa7, 0xd3, 0x69, 0xbe,
  0xa7, 0xd3, 0x69, 0xbe, 0x87, 0xc3, 0x61, 0xbe, 0x87, 0xc3, 0xe1, 0x3d,
  0x87, 0xc3, 0xe1, 0xbd, 0xa5, 0x52, 0x29, 0xbe, 0x45, 0x22, 0x11, 0x3e,
  0x06, 0x83, 0x41, 0x3d, 0x65, 0x32, 0x19, 0xbe, 0x24, 0x12, 0x09, 0x3e,
  0x06, 0x83, 0x41, 0xbd, 0x04, 0x02, 0x81, 0x3d, 0x06, 0x83, 0xc1, 0xbd,
  0x26, 0x93, 0x49, 0xbe, 0x45, 0x22, 0x11, 0x3e, 0x00, 0x00, 0x00, 0x80,
  0x47, 0xa3, 0x51, 0x3e, 0x00, 0x00, 0x00, 0x80, 0xc6, 0x62, 0xb1, 0xbd,
  0x87, 0xc3, 0x61, 0xbd, 0xc8, 0xe3, 0xf1, 0x3d, 0xc6, 0x62, 0xb1, 0x3d,
  0x06, 0x83, 0xc1, 0x3d, 0x04, 0x02, 0x01, 0xbd, 0x67, 0xb3, 0x59, 0xbe,
  0x87, 0xc3, 0xe1, 0x3d, 0x47, 0xa3, 0x51, 0x3e, 0x06, 0x83, 0xc1, 0x3d,
  0x85, 0x42, 0xa1, 0xbd, 0xa7, 0xd3, 0x69, 0x3e, 0xc6, 0x62, 0xb1, 0xbd,
  0x24, 0x12, 0x09, 0xbe, 0xc8, 0xe3, 0xf1, 0x3d, 0x06, 0x83, 0x41, 0xbd,
  0xa7, 0xd3, 0x69, 0x3e, 0x85, 0x42, 0x21, 0xbd, 0x85, 0x42, 0xa1, 0xbd,
  0x65, 0x32, 0x19, 0x3e, 0x06, 0x83, 0xc1, 0x3c, 0x04, 0x02, 0x81, 0xbd,
  0x65, 0x32, 0x19, 0x3e, 0xc8, 0xe3, 0x71, 0xbe, 0xa5, 0x52, 0x29, 0xbe,
  0x85, 0x42, 0xa1, 0x3d, 0x45, 0x22, 0x91, 0xbd, 0x04, 0x02, 0x01, 0xbd,
  0x04, 0x02, 0x81, 0x3d, 0x06, 0x83, 0xc1, 0x3c, 0xa5, 0x52, 0x29, 0xbe,
  0x45, 0x22, 0x91, 0xbd, 0x04, 0x02, 0x01, 0x3c, 0x04, 0x02, 0x81, 0xbd,
  0x04, 0x02, 0x81, 0x3d, 0xa5, 0x52, 0x29, 0x3e, 0xc8, 0xe3, 0xf1, 0xbd,
  0x87, 0xc3, 0x61, 0x3e, 0x47, 0xa3, 0xd1, 0x3d, 0x85, 0x42, 0x21, 0xbe,
  0x87, 0xc3, 0x61, 0xbd, 0x06, 0x83, 0x41, 0x3d, 0x04, 0x02, 0x01, 0x3d,
  0x04, 0x02, 0x01, 0xbc, 0x47, 0xa3, 0x51, 0xbe, 0xc8, 0xe3, 0xf1, 0x3d,
  0x85, 0x42, 0xa1, 0x3d, 0x06, 0x83, 0x41, 0xbe, 0xc6, 0x62, 0xb1, 0x3d,
  0x87, 0xc3, 0xe1, 0x3d, 0x06, 0x83, 0xc1, 0x3c, 0xa5, 0x52, 0x29, 0x3e,
  0x47, 0xa3, 0xd1, 0xbd, 0x00, 0x00, 0x00, 0x80, 0x06, 0x83, 0xc1, 0xbc,
  0x04, 0x02, 0x81, 0xbd, 0x47, 0xa3, 0x51, 0x3e, 0x06, 0x83, 0xc1, 0xbd,
  0x04, 0x02, 0x81, 0xbc, 0xc8, 0xe3, 0xf1, 0xbd, 0x24, 0x12, 0x09, 0xbe,
  0x06, 0x83, 0xc1, 0x3c, 0x87, 0xc3, 0xe1, 0xbd, 0x45, 0x22, 0x91, 0x3d,
  0xe6, 0x72, 0x39, 0xbe, 0x06, 0x83, 0x41, 0xbe, 0x06, 0x83, 0x41, 0x3e,
  0x04, 0x02, 0x01, 0x3d, 0xe6, 0x72, 0x39, 0x3e, 0xa5, 0x52, 0x29, 0xbe,
  0x06, 0x83, 0x41, 0x3d, 0xa5, 0x52, 0x29, 0xbe, 0x04, 0x02, 0x01, 0x3c,
  0xa5, 0x52, 0x29, 0x3e, 0x06, 0x83, 0x41, 0x3d, 0xc6, 0x62, 0x31, 0xbe,
  0xa7, 0xd3, 0x69, 0x3e, 0x47, 0xa3, 0x51, 0x3e, 0x45, 0x22, 0x11, 0xbe,
  0x87, 0xc3, 0xe1, 0xbd, 0x06, 0x83, 0x41, 0x3d, 0x26, 0x93, 0x49, 0x3e,
  0xc8, 0xe3, 0x71, 0x3e, 0x06, 0x83, 0xc1, 0x3d, 0x47, 0xa3, 0x51, 0xbe,
  0x04, 0x02, 0x81, 0x3d, 0x06, 0x83, 0xc1, 0x3c, 0x06, 0x83, 0xc1, 0xbc,
  0xc6, 0x62, 0xb1, 0xbd, 0x87, 0xc3, 0x61, 0x3d, 0x06, 0x83, 0xc1, 0xbc,
  0x06, 0x83, 0x41, 0xbe, 0x67, 0xb3, 0x59, 0x3e, 0x06, 0x83, 0x41, 0xbd,
  0x06, 0x83, 0xc1, 0xbc, 0x45, 0x22, 0x91, 0x3d, 0xc8, 0xe3, 0xf1, 0xbd,
  0x26, 0x93, 0x49, 0x3e, 0x04, 0x02, 0x01, 0xbe, 0x04, 0x02, 0x81, 0xbc,
  0x06, 0x83, 0xc1, 0xbc, 0x06, 0x83, 0xc1, 0xbc, 0x04, 0x02, 0x81, 0x3c,
  0x06, 0x83, 0x41, 0x3e, 0x85, 0x42, 0x21, 0x3e, 0x85, 0x42, 0x21, 0x3d,
  0x06, 0x83, 0x41, 0x3d, 0x06, 0x83, 0x41, 0x3d, 0xc6, 0x62, 0x31, 0x3e,
  0xc8, 0xe3, 0x71, 0xbe, 0x06, 0x83, 0xc1, 0x3d, 0x87, 0xc3, 0xe1, 0x3d,
  0xa5, 0x52, 0x29, 0x3e, 0xa5, 0x52, 0x29, 0xbe, 0x06, 0x83, 0xc1, 0x3c,
  0x24, 0x12, 0x09, 0x3e, 0x85, 0x42, 0x21, 0x3d, 0x45, 0x22, 0x11, 0x3e,
  0x06, 0x83, 0x41, 0xbe, 0xc6, 0x62, 0xb1, 0x3d, 0xa5, 0x52, 0x29, 0x3e,
  0xc8, 0xe3, 0xf1, 0xbd, 0xc8, 0xe3, 0x71, 0xbe, 0xc6, 0x62, 0xb1, 0xbd,
  0xc6, 0x62, 0x31, 0x3e, 0xc6, 0x62, 0x31, 0xbe, 0x45, 0x22, 0x11, 0x3e,
  0x47, 0xa3, 0xd1, 0xbd, 0x45, 0x22, 0x11, 0xbe, 0x45, 0x22, 0x11, 0x3e,
  0x26, 0x93, 0x49, 0xbe, 0x45, 0x22, 0x91, 0xbd, 0x00, 0x00, 0x00, 0x80,
  0x00, 0x00, 0x00, 0x00, 0x26, 0x93, 0x49, 0x3e, 0xe6, 0x72, 0x39, 0x3e,
  0x06, 0x83, 0xc1, 0xbd, 0x04, 0x02, 0x01, 0x3c, 0x85, 0x42, 0x21, 0xbd,
  0x87, 0xc3, 0x61, 0xbe, 0x06, 0x83, 0xc1, 0xbc, 0xa5, 0x52, 0x29, 0xbe,
  0xa7, 0xd3, 0x69, 0x3e, 0x06, 0x83, 0x41, 0xbe, 0x04, 0x02, 0x81, 0x3d,
  0x04, 0x02, 0x81, 0x3c, 0xa5, 0x52, 0x29, 0xbe, 0x47, 0xa3, 0x51, 0xbe,
  0x04, 0x02, 0x01, 0xbe, 0x04, 0x02, 0x01, 0xbe, 0x06, 0x83, 0xc1, 0x3d,
  0x04, 0x02, 0x01, 0x3d, 0x06, 0x83, 0x41, 0xbd, 0xe6, 0x72, 0x39, 0x3e,
  0x04, 0x02, 0x81, 0xbc, 0x45, 0x22, 0x91, 0x3d, 0x47, 0xa3, 0xd1, 0x3d,
  0x26, 0x93, 0x49, 0x3e, 0xa5, 0x52, 0x29, 0x3e, 0xc8, 0xe3, 0x71, 0xbe,
  0xe6, 0x72, 0x39, 0xbe, 0x06, 0x83, 0xc1, 0xbc, 0xc8, 0xe3, 0x71, 0xbe,
  0x04, 0x02, 0x81, 0xbd, 0x04, 0x02, 0x01, 0xbd, 0xc8, 0xe3, 0x71, 0x3e,
  0xa7, 0xd3, 0x69, 0xbe, 0x87, 0xc3, 0x61, 0x3e, 0x06, 0x83, 0xc1, 0x3c,
  0x47, 0xa3, 0x51, 0x3e, 0x04, 0x02, 0x01, 0x3c, 0x06, 0x83, 0xc1, 0x3d,
  0x26, 0x93, 0x49, 0x3e, 0x06, 0x83, 0xc1, 0xbc, 0x45, 0x22, 0x11, 0xbe,
  0x85, 0x42, 0x21, 0x3e, 0x06, 0x83, 0x41, 0x3d, 0x85, 0x42, 0x21, 0xbd,
  0x04, 0x02, 0x81, 0x3d, 0xe6, 0x72, 0x39, 0xbe, 0xc6, 0x62, 0x31, 0xbe,
  0x04, 0x02, 0x81, 0x3d, 0x04, 0x02, 0x81, 0xbd, 0xc6, 0x62, 0x31, 0xbe,
  0x04, 0x02, 0x01, 0x3e, 0x24, 0x12, 0x09, 0xbe, 0x04, 0x02, 0x01, 0x3d,
  0x85, 0x42, 0x21, 0x3d, 0x06, 0x83, 0xc1, 0x3c, 0xc6, 0x62, 0x31, 0xbe,
  0x87, 0xc3, 0xe1, 0x3d, 0x06, 0x83, 0xc1, 0x3d, 0xe6, 0x72, 0x39, 0x3e,
  0x04, 0x02, 0x01, 0x3d, 0x47, 0xa3, 0x51, 0xbe, 0x47, 0xa3, 0xd1, 0x3d,
  0x47, 0xa3, 0x51, 0x3e, 0x06, 0x83, 0xc1, 0xbc, 0x04, 0x02, 0x81, 0xbc,
  0x24, 0x12, 0x09, 0x3e, 0x04, 0x02, 0x01, 0xbe, 0x06, 0x83, 0x41, 0xbd,
  0xa7, 0xd3, 0x69, 0x3e, 0x04, 0x02, 0x01, 0xbe, 0x87, 0xc3, 0x61, 0x3e,
  0x45, 0x22, 0x91, 0x3d, 0x85, 0x42, 0xa1, 0xbd, 0xa7, 0xd3, 0x69, 0x3e,
  0x67, 0xb3, 0x59, 0xbe, 0xe6, 0x72, 0x39, 0x3e, 0x06, 0x83, 0x41, 0xbe,
  0x24, 0x12, 0x09, 0xbe, 0x06, 0x83, 0x41, 0x3e, 0xe6, 0x72, 0x39, 0xbe,
  0x87, 0xc3, 0x61, 0x3d, 0xe6, 0x72, 0x39, 0xbe, 0x85, 0x42, 0x21, 0xbe,
  0x67, 0xb3, 0x59, 0xbe, 0x87, 0xc3, 0x61, 0x3e, 0x47, 0xa3, 0xd1, 0xbd,
  0x06, 0x83, 0x41, 0x3d, 0x47, 0xa3, 0xd1, 0xbd, 0xc8, 0xe3, 0x71, 0x3e,
  0x47, 0xa3, 0xd1, 0xbd, 0x04, 0x02, 0x81, 0xbd, 0x87, 0xc3, 0xe1, 0xbd,
  0xc6, 0x62, 0x31, 0xbe, 0x45, 0x22, 0x91, 0x3d, 0xa5, 0x52, 0x29, 0xbe,
  0x06, 0x83, 0xc1, 0xbd, 0x85, 0x42, 0xa1, 0x3d, 0x04, 0x02, 0x81, 0xbc,
  0x87, 0xc3, 0x61, 0xbe, 0xc6, 0x62, 0xb1, 0xbd, 0x67, 0xb3, 0x59, 0xbe,
  0xa7, 0xd3, 0x69, 0x3e, 0x04, 0x02, 0x01, 0xbc, 0x04, 0x02, 0x81, 0xbc,
  0x87, 0xc3, 0xe1, 0x3d, 0x65, 0x32, 0x19, 0x3e, 0x26, 0x93, 0x49, 0xbe,
  0x24, 0x12, 0x09, 0x3e, 0x85, 0x42, 0x21, 0x3e, 0x47, 0xa3, 0xd1, 0x3d,
  0x87, 0xc3, 0x61, 0xbd, 0x00, 0x00, 0x00, 0x00, 0x45, 0x22, 0x91, 0x3d,
  0x04, 0x02, 0x81, 0x3c, 0x06, 0x83, 0x41, 0x3d, 0xe6, 0x72, 0x39, 0xbe,
  0x65, 0x32, 0x19, 0x3e, 0xc8, 0xe3, 0x71, 0x3e, 0x06, 0x83, 0x41, 0x3d,
  0xc8, 0xe3, 0xf1, 0xbd, 0x45, 0x22, 0x91, 0x3d, 0x87, 0xc3, 0x61, 0x3e,
  0x04, 0x02, 0x81, 0xbc, 0xc2, 0xf5, 0xff, 0xff, 0x04, 0x00, 0x00, 0x00,
  0xb0, 0x01, 0x00, 0x00, 0x06, 0x83, 0x41, 0x3e, 0x87, 0xc3, 0x61, 0xbe,
  0xc6, 0x62, 0xb1, 0x3d, 0x45, 0x22, 0x11, 0x3e, 0x87, 0xc3, 0xe1, 0x3d,
  0xa7, 0xd3, 0x69, 0xbe, 0x85, 0x42, 0x21, 0x3d, 0xa7, 0xd3, 0x69, 0x3e,
  0x67, 0xb3, 0x59, 0x3e, 0x67, 0xb3, 0x59, 0xbe, 0x65, 0x32, 0x99, 0x3e,
  0x24, 0x12, 0x09, 0x3e, 0x65, 0x32, 0x19, 0x3e, 0x06, 0x83, 0x41, 0xbd,
  0x04, 0x02, 0x81, 0xbc, 0x06, 0x83, 0x41, 0x3d, 0x04, 0x02, 0x01, 0xbe,
  0xc8, 0xe3, 0x71, 0x3e, 0x85, 0x42, 0xa1, 0x3d, 0x06, 0x83, 0xc1, 0xbd,
  0x55, 0x2a, 0x95, 0x3e, 0xc6, 0x62, 0xb1, 0xbd, 0xa7, 0xd3, 0x69, 0x3e,
  0x65, 0x32, 0x19, 0xbe, 0xc6, 0x62, 0xb1, 0x3d, 0x34, 0x1a, 0x8d, 0x3e,
  0xc6, 0x62, 0x31, 0x3e, 0x85, 0x42, 0x21, 0x3d, 0xe6, 0x72, 0x39, 0xbe,
  0xe8, 0xf3, 0x79, 0xbe, 0x04, 0x02, 0x81, 0x3d, 0x06, 0x83, 0x41, 0xbe,
  0x45, 0x22, 0x91, 0x3d, 0x04, 0x02, 0x81, 0xbd, 0x45, 0x22, 0x91, 0xbe,
  0xc8, 0xe3, 0x71, 0x3e, 0x04, 0x02, 0x81, 0x3d, 0x65, 0x32, 0x19, 0xbe,
  0x45, 0x22, 0x11, 0x3e, 0x85, 0x42, 0xa1, 0x3d, 0xc8, 0xe3, 0xf1, 0x3d,
  0x85, 0x42, 0xa1, 0xbd, 0x75, 0x3a, 0x9d, 0x3e, 0x14, 0x0a, 0x85, 0x3e,
  0x04, 0x02, 0x01, 0x3e, 0xc8, 0xe3, 0x71, 0x3e, 0x85, 0x42, 0x21, 0x3e,
  0xc6, 0x62, 0x31, 0xbe, 0x06, 0x83, 0x41, 0x3e, 0x65, 0x32, 0x99, 0x3e,
  0xc8, 0xe3, 0xf1, 0x3d, 0x85, 0x42, 0xa1, 0x3d, 0x04, 0x02, 0x81, 0x3c,
  0x87, 0xc3, 0x61, 0xbe, 0x45, 0x22, 0x11, 0x3e, 0x04, 0x02, 0x81, 0x3e,
  0x87, 0xc3, 0x61, 0xbe, 0x47, 0xa3, 0x51, 0xbe, 0x67, 0xb3, 0x59, 0xbe,
  0xa7, 0xd3, 0x69, 0xbe, 0x45, 0x22, 0x91, 0x3d, 0xc6, 0x62, 0xb1, 0x3d,
  0x06, 0x83, 0x41, 0xbd, 0xc8, 0xe3, 0x71, 0x3e, 0x45, 0x22, 0x91, 0x3d,
  0x55, 0x2a, 0x95, 0xbe, 0x55, 0x2a, 0x95, 0x3e, 0x26, 0x93, 0x49, 0x3e,
  0x06, 0x83, 0xc1, 0x3c, 0x04, 0x02, 0x81, 0x3e, 0x00, 0x00, 0x00, 0x00,
  0x04, 0x02, 0x01, 0xbd, 0x75, 0x3a, 0x9d, 0xbe, 0x75, 0x3a, 0x9d, 0x3e,
  0x47, 0xa3, 0x51, 0xbe, 0x85, 0x42, 0x21, 0xbd, 0xe8, 0xf3, 0x79, 0x3e,
  0x04, 0x02, 0x81, 0xbc, 0x75, 0x3a, 0x9d, 0xbe, 0x65, 0x32, 0x99, 0xbe,
  0x06, 0x83, 0xc1, 0x3c, 0x47, 0xa3, 0xd1, 0xbd, 0xc6, 0x62, 0x31, 0xbe,
  0xc6, 0x62, 0xb1, 0xbd, 0x06, 0x83, 0xc1, 0x3d, 0x06, 0x83, 0xc1, 0x3c,
  0x65, 0x32, 0x99, 0x3e, 0xe6, 0x72, 0x39, 0x3e, 0x06, 0x83, 0x41, 0x3e,
  0x65, 0x32, 0x99, 0x3e, 0x65, 0x32, 0x19, 0xbe, 0x26, 0x93, 0x49, 0xbe,
  0x14, 0x0a, 0x85, 0xbe, 0xc6, 0x62, 0xb1, 0x3d, 0x06, 0x83, 0xc1, 0x3d,
  0x26, 0x93, 0x49, 0xbe, 0x04, 0x02, 0x01, 0x3d, 0xe8, 0xf3, 0x79, 0xbe,
  0x04, 0x02, 0x01, 0xbc, 0x24, 0x12, 0x89, 0x3e, 0x65, 0x32, 0x19, 0xbe,
  0x65, 0x32, 0x19, 0x3e, 0x24, 0x12, 0x89, 0xbe, 0x06, 0x83, 0x41, 0xbd,
  0xe8, 0xf3, 0x79, 0xbe, 0x14, 0x0a, 0x85, 0x3e, 0x85, 0x42, 0x21, 0x3e,
  0xe6, 0x72, 0x39, 0x3e, 0x7e, 0xf7, 0xff, 0xff, 0x04, 0x00, 0x00, 0x00,
  0x80, 0x00, 0x00, 0x00, 0x85, 0x42, 0xa1, 0xbe, 0xa5, 0x52, 0x29, 0x3f,
  0x26, 0x93, 0x49, 0xbe, 0x67, 0xb3, 0xd9, 0xbe, 0x06, 0x83, 0x41, 0xbe,
  0xb5, 0x5a, 0xad, 0xbe, 0x85, 0x42, 0x21, 0xbe, 0x65, 0x32, 0x99, 0xbe,
  0x26, 0x93, 0xc9, 0xbe, 0x77, 0xbb, 0xdd, 0xbe, 0x34, 0x1a, 0x0d, 0x3f,
  0x87, 0xc3, 0xe1, 0xbe, 0x34, 0x1a, 0x0d, 0xbf, 0x57, 0xab, 0xd5, 0xbe,
  0x75, 0x3a, 0x1d, 0x3f, 0xe8, 0xf3, 0xf9, 0x3e, 0x65, 0x32, 0x19, 0x3e,
  0x14, 0x0a, 0x85, 0xbe, 0xe6, 0x72, 0x39, 0x3e, 0x87, 0xc3, 0x61, 0x3e,
  0xa7, 0xd3, 0xe9, 0x3e, 0x06, 0x83, 0xc1, 0x3c, 0xf6, 0x7a, 0xbd, 0xbe,
  0x26, 0x93, 0xc9, 0x3e, 0x0c, 0x06, 0x03, 0xbf, 0x57, 0xab, 0xd5, 0xbe,
  0x9d, 0x4e, 0x27, 0x3f, 0xe6, 0x72, 0x39, 0x3e, 0x67, 0xb3, 0xd9, 0x3e,
  0xc8, 0xe3, 0x71, 0xbe, 0x3c, 0x1e, 0x0f, 0x3f, 0x04, 0x02, 0x81, 0x3c,
  0x0a, 0xf8, 0xff, 0xff, 0x04, 0x00, 0x00, 0x00, 0x00, 0x02, 0x00, 0x00,
  0x85, 0x42, 0x21, 0x3d, 0x14, 0x0a, 0x85, 0x3e, 0x65, 0x32, 0x19, 0xbe,
  0x06, 0x83, 0xc1, 0xbe, 0x65, 0x32, 0x99, 0x3e, 0x45, 0x22, 0x91, 0x3e,
  0xc6, 0x62, 0xb1, 0x3d, 0x67, 0xb3, 0xd9, 0x3e, 0x36, 0x9b, 0xcd, 0x3e,
  0x65, 0x32, 0x99, 0x3e, 0x04, 0x02, 0x81, 0x3e, 0x85, 0x42, 0xa1, 0xbe,
  0xe6, 0x72, 0x39, 0xbe, 0x87, 0xc3, 0xe1, 0xbe, 0x16, 0x8b, 0xc5, 0x3e,
  0x06, 0x83, 0x41, 0xbe, 0x34, 0x1a, 0x8d, 0x3e, 0x04, 0x02, 0x81, 0x3d,
  0x24, 0x12, 0x09, 0x3e, 0x26, 0x93, 0xc9, 0xbe, 0xd8, 0xeb, 0xf5, 0x3e,
  0xc8, 0xe3, 0xf1, 0xbd, 0x47, 0xa3, 0xd1, 0xbd, 0x04, 0x02, 0x81, 0xbd,
  0xd6, 0x6a, 0xb5, 0x3e, 0xc8, 0xe3, 0xf1, 0x3e, 0xe6, 0x72, 0xb9, 0x3e,
  0x97, 0xcb, 0xe5, 0xbe, 0xf6, 0x7a, 0xbd, 0x3e, 0x24, 0x12, 0x89, 0x3e,
  0x26, 0x93, 0xc9, 0xbe, 0x24, 0x12, 0x09, 0x3e, 0x85, 0x42, 0x21, 0xbe,
  0x04, 0x02, 0x81, 0xbd, 0xd8, 0xeb, 0xf5, 0xbe, 0x34, 0x1a, 0x8d, 0xbe,
  0x16, 0x8b, 0xc5, 0xbe, 0x06, 0x83, 0x41, 0x3d, 0x04, 0x02, 0x01, 0xbc,
  0x24, 0x12, 0x09, 0x3e, 0x77, 0xbb, 0xdd, 0x3e, 0x24, 0x12, 0x89, 0xbe,
  0xc6, 0x62, 0xb1, 0x3e, 0x85, 0x42, 0xa1, 0x3d, 0x67, 0xb3, 0x59, 0xbe,
  0xb7, 0xdb, 0xed, 0xbe, 0x55, 0x2a, 0x95, 0x3e, 0x57, 0xab, 0xd5, 0xbe,
  0xc6, 0x62, 0x31, 0x3e, 0xc8, 0xe3, 0xf1, 0x3d, 0x47, 0xa3, 0xd1, 0xbe,
  0x95, 0x4a, 0xa5, 0xbe, 0x14, 0x0a, 0x85, 0x3e, 0xb7, 0xdb, 0xed, 0xbe,
  0x45, 0x22, 0x11, 0xbe, 0x36, 0x9b, 0xcd, 0x3e, 0x06, 0x83, 0x41, 0xbe,
  0xa5, 0x52, 0x29, 0xbe, 0x06, 0x83, 0x41, 0xbe, 0x85, 0x42, 0x21, 0x3e,
  0x45, 0x22, 0x11, 0x3e, 0x85, 0x42, 0xa1, 0x3d, 0xc8, 0xe3, 0x71, 0xbe,
  0xa7, 0xd3, 0xe9, 0x3e, 0x45, 0x22, 0x91, 0x3e, 0x47, 0xa3, 0x51, 0xbe,
  0x45, 0x22, 0x91, 0x3d, 0x75, 0x3a, 0x9d, 0x3e, 0xe6, 0x72, 0x39, 0xbe,
  0x55, 0x2a, 0x95, 0xbe, 0xc6, 0x62, 0xb1, 0xbe, 0x04, 0x02, 0x81, 0x3e,
  0x87, 0xc3, 0x61, 0x3d, 0x04, 0x02, 0x81, 0x3c, 0xf8, 0xfb, 0xfd, 0xbe,
  0x57, 0xab, 0xd5, 0x3e, 0xc8, 0xe3, 0x71, 0x3e, 0xc6, 0x62, 0xb1, 0x3e,
  0x26, 0x93, 0x49, 0xbe, 0x87, 0xc3, 0x61, 0xbd, 0x85, 0x42, 0x21, 0xbd,
  0x06, 0x83, 0xc1, 0x3e, 0x57, 0xab, 0xd5, 0x3e, 0x06, 0x83, 0xc1, 0x3e,
  0x55, 0x2a, 0x95, 0xbe, 0x45, 0x22, 0x91, 0x3e, 0x85, 0x42, 0x21, 0xbd,
  0x87, 0xc3, 0xe1, 0xbd, 0x06, 0x83, 0xc1, 0x3e, 0x85, 0x42, 0xa1, 0x3e,
  0xf6, 0x7a, 0xbd, 0x3e, 0x67, 0xb3, 0xd9, 0x3e, 0xe8, 0xf3, 0xf9, 0x3e,
  0x57, 0xab, 0xd5, 0xbe, 0x67, 0xb3, 0x59, 0x3e, 0x85, 0x42, 0x21, 0xbd,
  0xc8, 0xe3, 0x71, 0x3e, 0x04, 0x02, 0x01, 0x3e, 0x04, 0x02, 0x01, 0x3c,
  0x85, 0x42, 0xa1, 0x3e, 0x34, 0x1a, 0x8d, 0x3e, 0x67, 0xb3, 0x59, 0xbe,
  0x47, 0xa3, 0xd1, 0xbd, 0x04, 0x02, 0x81, 0xbc, 0xc8, 0xe3, 0xf1, 0xbe,
  0x45, 0x22, 0x11, 0x3e, 0xa7, 0xd3, 0x69, 0xbe, 0x36, 0x9b, 0xcd, 0xbe,
  0x75, 0x3a, 0x9d, 0x3e, 0x04, 0x02, 0x81, 0xbe, 0x97, 0xcb, 0xe5, 0x3e,
  0x85, 0x42, 0xa1, 0x3e, 0x06, 0x83, 0xc1, 0xbe, 0xa5, 0x52, 0xa9, 0x3e,
  0x95, 0x4a, 0xa5, 0xbe, 0x04, 0x02, 0x81, 0x3d, 0xb7, 0xdb, 0xed, 0x3e,
  0xc6, 0x62, 0xb1, 0xbe, 0xc8, 0xe3, 0xf1, 0x3e, 0xc8, 0xe3, 0x71, 0x3e,
  0x04, 0x02, 0x01, 0x3d, 0xc8, 0xe3, 0xf1, 0xbe, 0xe8, 0xf3, 0xf9, 0xbe,
  0x04, 0x02, 0x81, 0x3c, 0xb5, 0x5a, 0xad, 0x3e, 0xc8, 0xe3, 0x71, 0x3e,
  0xc8, 0xe3, 0x71, 0xbe, 0x36, 0x9b, 0xcd, 0xbe, 0x16, 0xfa, 0xff, 0xff,
  0x04, 0x00, 0x00, 0x00, 0x00, 0x04, 0x00, 0x00, 0x24, 0x12, 0x89, 0x3e,
  0x87, 0xc3, 0x61, 0x3e, 0x24, 0x12, 0x89, 0xbe, 0x67, 0xb3, 0x59, 0xbe,
  0x06, 0x83, 0xc1, 0xbc, 0x06, 0x83, 0x41, 0x3d, 0x04, 0x02, 0x01, 0xbc,
  0x26, 0x93, 0x49, 0xbe, 0x85, 0x42, 0xa1, 0x3d, 0x34, 0x1a, 0x8d, 0xbe,
  0x04, 0x02, 0x81, 0x3e, 0xc6, 0x62, 0xb1, 0x3d, 0x75, 0x3a, 0x9d, 0x3e,
  0x85, 0x42, 0x21, 0x3d, 0x04, 0x02, 0x01, 0x3c, 0x06, 0x83, 0xc1, 0x3e,
  0x55, 0x2a, 0x95, 0xbe, 0x85, 0x42, 0x21, 0xbd, 0x75, 0x3a, 0x9d, 0x3e,
  0xa5, 0x52, 0xa9, 0x3e, 0x75, 0x3a, 0x9d, 0x3e, 0x04, 0x02, 0x01, 0x3c,
  0x26, 0x93, 0xc9, 0xbe, 0xe6, 0x72, 0x39, 0x3e, 0x55, 0x2a, 0x95, 0x3e,
  0x16, 0x8b, 0xc5, 0x3e, 0x65, 0x32, 0x19, 0x3e, 0x24, 0x12, 0x09, 0x3e,
  0x57, 0xab, 0xd5, 0x3e, 0x65, 0x32, 0x19, 0xbe, 0x47, 0xa3, 0x51, 0x3e,
  0xc8, 0xe3, 0x71, 0xbe, 0xa7, 0xd3, 0x69, 0x3e, 0xd6, 0x6a, 0xb5, 0xbe,
  0xc6, 0x62, 0xb1, 0xbd, 0x47, 0xa3, 0xd1, 0xbd, 0x87, 0xc3, 0x61, 0xbe,
  0x45, 0x22, 0x91, 0x3e, 0x77, 0xbb, 0xdd, 0xbe, 0x04, 0x02, 0x01, 0xbd,
  0x67, 0xb3, 0x59, 0x3e, 0x67, 0xb3, 0xd9, 0x3e, 0x00, 0x00, 0x00, 0x00,
  0x04, 0x02, 0x01, 0xbd, 0xc6, 0x62, 0xb1, 0x3e, 0xc6, 0x62, 0xb1, 0xbe,
  0x00, 0x00, 0x00, 0x80, 0x04, 0x02, 0x01, 0x3d, 0xe6, 0x72, 0x39, 0x3e,
  0x16, 0x8b, 0xc5, 0x3e, 0x04, 0x02, 0x01, 0x3c, 0x06, 0x83, 0xc1, 0xbe,
  0x06, 0x83, 0xc1, 0x3c, 0x65, 0x32, 0x19, 0xbe, 0x00, 0x00, 0x00, 0x00,
  0x45, 0x22, 0x11, 0xbe, 0x24, 0x12, 0x09, 0x3e, 0x04, 0x02, 0x01, 0xbd,
  0x36, 0x9b, 0xcd, 0xbe, 0xe6, 0x72, 0xb9, 0x3e, 0x36, 0x9b, 0xcd, 0xbe,
  0x04, 0x02, 0x81, 0x3e, 0xc6, 0x62, 0xb1, 0x3d, 0x55, 0x2a, 0x95, 0x3e,
  0xe8, 0xf3, 0x79, 0x3e, 0x87, 0xc3, 0x61, 0xbd, 0xc6, 0x62, 0x31, 0x3e,
  0xf6, 0x7a, 0xbd, 0x3e, 0x45, 0x22, 0x11, 0xbe, 0x26, 0x93, 0xc9, 0xbe,
  0x47, 0xa3, 0x51, 0xbe, 0xe6, 0x72, 0x39, 0x3e, 0xa7, 0xd3, 0x69, 0xbe,
  0xc6, 0x62, 0xb1, 0xbe, 0xa5, 0x52, 0x29, 0x3e, 0x85, 0x42, 0xa1, 0xbe,
  0x45, 0x22, 0x11, 0xbe, 0x87, 0xc3, 0xe1, 0xbd, 0xb5, 0x5a, 0xad, 0x3e,
  0x45, 0x22, 0x11, 0x3e, 0x04, 0x02, 0x81, 0x3c, 0x47, 0xa3, 0xd1, 0xbe,
  0x87, 0xc3, 0xe1, 0xbd, 0x85, 0x42, 0x21, 0xbd, 0x47, 0xa3, 0xd1, 0xbe,
  0xc6, 0x62, 0xb1, 0xbe, 0x65, 0x32, 0x99, 0x3e, 0x87, 0xc3, 0xe1, 0xbd,
  0x06, 0x83, 0xc1, 0xbc, 0x45, 0x22, 0x91, 0x3d, 0xa5, 0x52, 0xa9, 0xbe,
  0x06, 0x83, 0x41, 0xbd, 0x04, 0x02, 0x81, 0x3e, 0x36, 0x9b, 0xcd, 0x3e,
  0x26, 0x93, 0xc9, 0x3e, 0x45, 0x22, 0x91, 0x3e, 0x75, 0x3a, 0x9d, 0xbe,
  0xe6, 0x72, 0x39, 0x3e, 0x77, 0xbb, 0xdd, 0x3e, 0x45, 0x22, 0x91, 0x3e,
  0x06, 0x83, 0xc1, 0xbc, 0x67, 0xb3, 0x59, 0xbe, 0xe8, 0xf3, 0x79, 0x3e,
  0xe8, 0xf3, 0x79, 0xbe, 0x45, 0x22, 0x11, 0x3e, 0xc6, 0x62, 0xb1, 0x3e,
  0x85, 0x42, 0xa1, 0xbe, 0x57, 0xab, 0xd5, 0xbe, 0x06, 0x83, 0xc1, 0xbd,
  0xc8, 0xe3, 0x71, 0x3e, 0x34, 0x1a, 0x8d, 0x3e, 0xd6, 0x6a, 0xb5, 0x3e,
  0x67, 0xb3, 0xd9, 0x3e, 0x45, 0x22, 0x91, 0x3e, 0x06, 0x83, 0xc1, 0x3e,
  0x67, 0xb3, 0xd9, 0xbe, 0x26, 0x93, 0xc9, 0x3e, 0x87, 0xc3, 0xe1, 0xbd,
  0x06, 0x83, 0x41, 0xbe, 0x04, 0x02, 0x81, 0xbc, 0xc8, 0xe3, 0xf1, 0x3d,
  0x24, 0x12, 0x09, 0x3e, 0x57, 0xab, 0xd5, 0xbe, 0x06, 0x83, 0xc1, 0xbd,
  0x24, 0x12, 0x89, 0x3e, 0x75, 0x3a, 0x9d, 0x3e, 0xd6, 0x6a, 0xb5, 0x3e,
  0x04, 0x02, 0x81, 0x3e, 0x24, 0x12, 0x09, 0x3e, 0x06, 0x83, 0x41, 0xbd,
  0x87, 0xc3, 0x61, 0x3e, 0x14, 0x0a, 0x85, 0xbe, 0x26, 0x93, 0x49, 0x3e,
  0x65, 0x32, 0x99, 0x3e, 0xc6, 0x62, 0x31, 0xbe, 0x67, 0xb3, 0xd9, 0xbe,
  0x45, 0x22, 0x91, 0xbe, 0xc6, 0x62, 0xb1, 0xbd, 0x24, 0x12, 0x09, 0xbe,
  0xe6, 0x72, 0xb9, 0xbe, 0xb5, 0x5a, 0xad, 0xbe, 0xa5, 0x52, 0xa9, 0x3e,
  0x06, 0x83, 0xc1, 0xbc, 0x16, 0x8b, 0xc5, 0xbe, 0x67, 0xb3, 0xd9, 0x3e,
  0x75, 0x3a, 0x9d, 0xbe, 0x77, 0xbb, 0xdd, 0xbe, 0x67, 0xb3, 0xd9, 0x3e,
  0x45, 0x22, 0x91, 0xbe, 0xc6, 0x62, 0xb1, 0x3e, 0xa5, 0x52, 0x29, 0xbe,
  0xc8, 0xe3, 0x71, 0xbe, 0xe8, 0xf3, 0x79, 0x3e, 0x85, 0x42, 0xa1, 0xbe,
  0x34, 0x1a, 0x8d, 0x3e, 0x65, 0x32, 0x19, 0x3e, 0xb5, 0x5a, 0xad, 0x3e,
  0x06, 0x83, 0x41, 0xbd, 0x36, 0x9b, 0xcd, 0xbe, 0xa7, 0xd3, 0x69, 0x3e,
  0x65, 0x32, 0x99, 0xbe, 0x47, 0xa3, 0x51, 0xbe, 0xc6, 0x62, 0xb1, 0xbe,
  0xc6, 0x62, 0x31, 0xbe, 0x85, 0x42, 0xa1, 0x3e, 0x06, 0x83, 0xc1, 0x3e,
  0x87, 0xc3, 0xe1, 0x3d, 0x75, 0x3a, 0x9d, 0x3e, 0xe6, 0x72, 0xb9, 0x3e,
  0x26, 0x93, 0xc9, 0x3e, 0x45, 0x22, 0x11, 0xbe, 0x04, 0x02, 0x81, 0x3c,
  0x55, 0x2a, 0x95, 0xbe, 0x85, 0x42, 0x21, 0xbe, 0x85, 0x42, 0xa1, 0xbd,
  0x57, 0xab, 0xd5, 0xbe, 0x67, 0xb3, 0x59, 0x3e, 0x45, 0x22, 0x91, 0xbd,
  0xc6, 0x62, 0xb1, 0x3d, 0xf6, 0x7a, 0xbd, 0xbe, 0x24, 0x12, 0x09, 0x3e,
  0xa5, 0x52, 0xa9, 0x3e, 0x06, 0x83, 0xc1, 0x3d, 0x85, 0x42, 0xa1, 0xbe,
  0xa7, 0xd3, 0x69, 0x3e, 0x67, 0xb3, 0x59, 0x3e, 0x87, 0xc3, 0x61, 0x3d,
  0x06, 0x83, 0xc1, 0x3e, 0x04, 0x02, 0x01, 0xbd, 0xe6, 0x72, 0x39, 0xbe,
  0x36, 0x9b, 0xcd, 0xbe, 0x04, 0x02, 0x81, 0x3c, 0x47, 0xa3, 0xd1, 0xbd,
  0x87, 0xc3, 0x61, 0xbd, 0x65, 0x32, 0x99, 0xbe, 0x24, 0x12, 0x89, 0x3e,
  0xa7, 0xd3, 0x69, 0xbe, 0x16, 0x8b, 0xc5, 0xbe, 0x04, 0x02, 0x01, 0x3d,
  0x26, 0x93, 0x49, 0x3e, 0x45, 0x22, 0x91, 0xbd, 0x04, 0x02, 0x81, 0x3c,
  0xc6, 0x62, 0xb1, 0xbe, 0xe6, 0x72, 0x39, 0x3e, 0xe6, 0x72, 0x39, 0x3e,
  0x57, 0xab, 0xd5, 0xbe, 0x06, 0x83, 0x41, 0xbd, 0x85, 0x42, 0xa1, 0x3e,
  0x24, 0x12, 0x09, 0xbe, 0x95, 0x4a, 0xa5, 0xbe, 0x67, 0xb3, 0x59, 0xbe,
  0xe6, 0x72, 0x39, 0x3e, 0x04, 0x02, 0x81, 0xbd, 0x45, 0x22, 0x11, 0x3e,
  0x04, 0x02, 0x01, 0xbd, 0x04, 0x02, 0x01, 0x3d, 0x04, 0x02, 0x01, 0xbd,
  0x14, 0x0a, 0x85, 0xbe, 0x55, 0x2a, 0x95, 0x3e, 0x24, 0x12, 0x09, 0x3e,
  0x47, 0xa3, 0x51, 0xbe, 0xa7, 0xd3, 0x69, 0x3e, 0x06, 0x83, 0xc1, 0x3c,
  0x67, 0xb3, 0x59, 0xbe, 0x45, 0x22, 0x91, 0xbd, 0x87, 0xc3, 0x61, 0x3d,
  0x24, 0x12, 0x09, 0x3e, 0x85, 0x42, 0x21, 0xbe, 0x47, 0xa3, 0x51, 0x3e,
  0x04, 0x02, 0x01, 0xbd, 0xc6, 0x62, 0xb1, 0x3d, 0xa5, 0x52, 0xa9, 0x3e,
  0x26, 0x93, 0xc9, 0x3e, 0x55, 0x2a, 0x95, 0xbe, 0x55, 0x2a, 0x95, 0x3e,
  0x36, 0x9b, 0xcd, 0xbe, 0x04, 0x02, 0x01, 0x3c, 0xc6, 0x62, 0xb1, 0xbe,
  0x04, 0x02, 0x01, 0xbe, 0x87, 0xc3, 0x61, 0xbe, 0x85, 0x42, 0xa1, 0x3d,
  0x04, 0x02, 0x81, 0xbd, 0xa7, 0xd3, 0x69, 0xbe, 0x67, 0xb3, 0x59, 0xbe,
  0x26, 0x93, 0xc9, 0x3e, 0x04, 0x02, 0x81, 0x3c, 0x65, 0x32, 0x99, 0x3e,
  0x55, 0x2a, 0x95, 0xbe, 0x85, 0x42, 0x21, 0x3e, 0x04, 0x02, 0x01, 0x3c,
  0xa5, 0x52, 0xa9, 0xbe, 0x06, 0x83, 0x41, 0xbe, 0xe8, 0xf3, 0x79, 0xbe,
  0xb5, 0x5a, 0xad, 0x3e, 0x57, 0xab, 0xd5, 0x3e, 0x55, 0x2a, 0x95, 0x3e,
  0x22, 0xfe, 0xff, 0xff, 0x04, 0x00, 0x00, 0x00, 0x08, 0x00, 0x00, 0x00,
  0x01, 0x00, 0x00, 0x00, 0x02, 0x00, 0x00, 0x00, 0x36, 0xfe, 0xff, 0xff,
  0x04, 0x00, 0x00, 0x00, 0x20, 0x00, 0x00, 0x00, 0x00, 0x00, 0x00, 0x00,
  0x00, 0x00, 0x00, 0x00, 0x00, 0x00, 0x00, 0x00, 0x00, 0x00, 0x00, 0x00,
  0x00, 0x00, 0x00, 0x00, 0x00, 0x00, 0x00, 0x00, 0x00, 0x00, 0x00, 0x00,
  0x00, 0x00, 0x00, 0x00, 0x62, 0xfe, 0xff, 0xff, 0x04, 0x00, 0x00, 0x00,
  0x40, 0x00, 0x00, 0x00, 0x00, 0x00, 0x00, 0x00, 0x00, 0x00, 0x00, 0x00,
  0x00, 0x00, 0x00, 0x00, 0x00, 0x00, 0x00, 0x00, 0x00, 0x00, 0x00, 0x00,
  0x00, 0x00, 0x00, 0x00, 0x00, 0x00, 0x00, 0x00, 0x00, 0x00, 0x00, 0x00,
  0x00, 0x00, 0x00, 0x00, 0x00, 0x00, 0x00, 0x00, 0x00, 0x00, 0x00, 0x00,
  0x00, 0x00, 0x00, 0x00, 0x00, 0x00, 0x00, 0x00, 0x00, 0x00, 0x00, 0x00,
  0x00, 0x00, 0x00, 0x00, 0x00, 0x00, 0x00, 0x00, 0xae, 0xfe, 0xff, 0xff,
  0x04, 0x00, 0x00, 0x00, 0x10, 0x00, 0x00, 0x00, 0x00, 0x00, 0x00, 0x00,
  0x00, 0x00, 0x00, 0x00, 0x00, 0x00, 0x00, 0x00, 0x00, 0x00, 0x00, 0x00,
  0xca, 0xfe, 0xff, 0xff, 0x04, 0x00, 0x00, 0x00, 0x20, 0x00, 0x00, 0x00,
  0x00, 0x00, 0x00, 0x00, 0x00, 0x00, 0x00, 0x00, 0x00, 0x00, 0x00, 0x00,
  0x00, 0x00, 0x00, 0x00, 0x00, 0x00, 0x00, 0x00, 0x00, 0x00, 0x00, 0x00,
  0x00, 0x00, 0x00, 0x80, 0x00, 0x00, 0x00, 0x80, 0xf6, 0xfe, 0xff, 0xff,
  0x04, 0x00, 0x00, 0x00, 0x10, 0x00, 0x00, 0x00, 0x00, 0x00, 0x00, 0x00,
  0x00, 0x00, 0x00, 0x80, 0x00, 0x00, 0x00, 0x00, 0x00, 0x00, 0x00, 0x00,
  0x12, 0xff, 0xff, 0xff, 0x04, 0x00, 0x00, 0x00, 0x40, 0x00, 0x00, 0x00,
  0x00, 0x00, 0x00, 0x00, 0x00, 0x00, 0x00, 0x80, 0x00, 0x00, 0x00, 0x00,
  0x00, 0x00, 0x00, 0x80, 0x00, 0x00, 0x00, 0x80, 0x00, 0x00, 0x00, 0x00,
  0x00, 0x00, 0x00, 0x80, 0x00, 0x00, 0x00, 0x00, 0x00, 0x00, 0x00, 0x00,
  0x00, 0x00, 0x00, 0x00, 0x00, 0x00, 0x00, 0x00, 0x00, 0x00, 0x00, 0x00,
  0x00, 0x00, 0x00, 0x00, 0x00, 0x00, 0x00, 0x00, 0x00, 0x00, 0x00, 0x80,
  0x00, 0x00, 0x00, 0x00, 0x98, 0xf1, 0xff, 0xff, 0x9c, 0xf1, 0xff, 0xff,
  0x0f, 0x00, 0x00, 0x00, 0x4d, 0x4c, 0x49, 0x52, 0x20, 0x43, 0x6f, 0x6e,
  0x76, 0x65, 0x72, 0x74, 0x65, 0x64, 0x2e, 0x00, 0x01, 0x00, 0x00, 0x00,
  0x14, 0x00, 0x00, 0x00, 0x00, 0x00, 0x0e, 0x00, 0x18, 0x00, 0x14, 0x00,
  0x10, 0x00, 0x0c, 0x00, 0x08, 0x00, 0x04, 0x00, 0x0e, 0x00, 0x00, 0x00,
  0x14, 0x00, 0x00, 0x00, 0x1c, 0x00, 0x00, 0x00, 0x18, 0x03, 0x00, 0x00,
  0x1c, 0x03, 0x00, 0x00, 0x20, 0x03, 0x00, 0x00, 0x04, 0x00, 0x00, 0x00,
  0x6d, 0x61, 0x69, 0x6e, 0x00, 0x00, 0x00, 0x00, 0x0b, 0x00, 0x00, 0x00,
  0xb0, 0x02, 0x00, 0x00, 0x4c, 0x02, 0x00, 0x00, 0xf8, 0x01, 0x00, 0x00,
  0xb4, 0x01, 0x00, 0x00, 0x70, 0x01, 0x00, 0x00, 0x2c, 0x01, 0x00, 0x00,
  0xf8, 0x00, 0x00, 0x00, 0xb4, 0x00, 0x00, 0x00, 0x78, 0x00, 0x00, 0x00,
  0x40, 0x00, 0x00, 0x00, 0x04, 0x00, 0x00, 0x00, 0xea, 0xfd, 0xff, 0xff,
  0x1c, 0x00, 0x00, 0x00, 0x00, 0x00, 0x00, 0x09, 0x1c, 0x00, 0x00, 0x00,
  0x20, 0x00, 0x00, 0x00, 0x04, 0x00, 0x00, 0x00, 0x00, 0x00, 0x06, 0x00,
  0x08, 0x00, 0x04, 0x00, 0x06, 0x00, 0x00, 0x00, 0x00, 0x00, 0x80, 0x3f,
  0x01, 0x00, 0x00, 0x00, 0x18, 0x00, 0x00, 0x00, 0x01, 0x00, 0x00, 0x00,
  0x17, 0x00, 0x00, 0x00, 0x22, 0xfe, 0xff, 0xff, 0x14, 0x00, 0x00, 0x00,
  0x00, 0x00, 0x00, 0x08, 0x10, 0x00, 0x00, 0x00, 0x14, 0x00, 0x00, 0x00,
  0x03, 0x00, 0x00, 0x00, 0x70, 0xf2, 0xff, 0xff, 0x01, 0x00, 0x00, 0x00,
  0x17, 0x00, 0x00, 0x00, 0x03, 0x00, 0x00, 0x00, 0x16, 0x00, 0x00, 0x00,
  0x0a, 0x00, 0x00, 0x00, 0x02, 0x00, 0x00, 0x00, 0x56, 0xfe, 0xff, 0xff,
  0x14, 0x00, 0x00, 0x00, 0x00, 0x00, 0x00, 0x08, 0x14, 0x00, 0x00, 0x00,
  0x18, 0x00, 0x00, 0x00, 0x03, 0x00, 0x00, 0x00, 0xc6, 0xff, 0xff, 0xff,
  0x00, 0x00, 0x00, 0x01, 0x01, 0x00, 0x00, 0x00, 0x16, 0x00, 0x00, 0x00,
  0x03, 0x00, 0x00, 0x00, 0x15, 0x00, 0x00, 0x00, 0x09, 0x00, 0x00, 0x00,
  0x03, 0x00, 0x00, 0x00, 0x8e, 0xfe, 0xff, 0xff, 0x1c, 0x00, 0x00, 0x00,
  0x00, 0x00, 0x00, 0x08, 0x1c, 0x00, 0x00, 0x00, 0x20, 0x00, 0x00, 0x00,
  0x03, 0x00, 0x00, 0x00, 0x00, 0x00, 0x06, 0x00, 0x08, 0x00, 0x07, 0x00,
  0x06, 0x00, 0x00, 0x00, 0x00, 0x00, 0x00, 0x01, 0x01, 0x00, 0x00, 0x00,
  0x15, 0x00, 0x00, 0x00, 0x03, 0x00, 0x00, 0x00, 0x14, 0x00, 0x00, 0x00,
  0x08, 0x00, 0x00, 0x00, 0x01, 0x00, 0x00, 0x00, 0xce, 0xfe, 0xff, 0xff,
  0x14, 0x00, 0x00, 0x00, 0x00, 0x00, 0x00, 0x1b, 0x10, 0x00, 0x00, 0x00,
  0x14, 0x00, 0x00, 0x00, 0x02, 0x00, 0x00, 0x00, 0x1c, 0xf3, 0xff, 0xff,
  0x01, 0x00, 0x00, 0x00, 0x14, 0x00, 0x00, 0x00, 0x02, 0x00, 0x00, 0x00,
  0x13, 0x00, 0x00, 0x00, 0x07, 0x00, 0x00, 0x00, 0xfe, 0xfe, 0xff, 0xff,
  0x14, 0x00, 0x00, 0x00, 0x00, 0x00, 0x00, 0x05, 0x24, 0x00, 0x00, 0x00,
  0x28, 0x00, 0x00, 0x00, 0x01, 0x00, 0x00, 0x00, 0xee, 0xfe, 0xff, 0xff,
  0x02, 0x00, 0x00, 0x00, 0x02, 0x00, 0x00, 0x00, 0x02, 0x00, 0x00, 0x00,
  0x02, 0x00, 0x00, 0x00, 0x00, 0x00, 0x00, 0x01, 0x01, 0x00, 0x00, 0x00,
  0x13, 0x00, 0x00, 0x00, 0x01, 0x00, 0x00, 0x00, 0x12, 0x00, 0x00, 0x00,
  0xde, 0xfe, 0xff, 0xff, 0x10, 0x00, 0x00, 0x00, 0x00, 0x00, 0x00, 0x01,
  0x1c, 0x00, 0x00, 0x00, 0x20, 0x00, 0x00, 0x00, 0xd0, 0xfe, 0xff, 0xff,
  0x00, 0x00, 0x00, 0x01, 0x01, 0x00, 0x00, 0x00, 0x01, 0x00, 0x00, 0x00,
  0x00, 0x00, 0x00, 0x01, 0x01, 0x00, 0x00, 0x00, 0x12, 0x00, 0x00, 0x00,
  0x03, 0x00, 0x00, 0x00, 0x11, 0x00, 0x00, 0x00, 0x0d, 0x00, 0x00, 0x00,
  0x05, 0x00, 0x00, 0x00, 0x7e, 0xff, 0xff, 0xff, 0x14, 0x00, 0x00, 0x00,
  0x00, 0x00, 0x00, 0x05, 0x24, 0x00, 0x00, 0x00, 0x28, 0x00, 0x00, 0x00,
  0x01, 0x00, 0x00, 0x00, 0x6e, 0xff, 0xff, 0xff, 0x02, 0x00, 0x00, 0x00,
  0x02, 0x00, 0x00, 0x00, 0x02, 0x00, 0x00, 0x00, 0x02, 0x00, 0x00, 0x00,
  0x00, 0x00, 0x00, 0x01, 0x01, 0x00, 0x00, 0x00, 0x11, 0x00, 0x00, 0x00,
  0x01, 0x00, 0x00, 0x00, 0x10, 0x00, 0x00, 0x00, 0x5e, 0xff, 0xff, 0xff,
  0x10, 0x00, 0x00, 0x00, 0x00, 0x00, 0x00, 0x01, 0x1c, 0x00, 0x00, 0x00,
  0x20, 0x00, 0x00, 0x00, 0x50, 0xff, 0xff, 0xff, 0x00, 0x00, 0x00, 0x01,
  0x01, 0x00, 0x00, 0x00, 0x01, 0x00, 0x00, 0x00, 0x00, 0x00, 0x00, 0x01,
  0x01, 0x00, 0x00, 0x00, 0x10, 0x00, 0x00, 0x00, 0x03, 0x00, 0x00, 0x00,
  0x0f, 0x00, 0x00, 0x00, 0x0c, 0x00, 0x00, 0x00, 0x06, 0x00, 0x00, 0x00,
  0x00, 0x00, 0x0e, 0x00, 0x1a, 0x00, 0x14, 0x00, 0x10, 0x00, 0x0c, 0x00,
  0x0b, 0x00, 0x04, 0x00, 0x0e, 0x00, 0x00, 0x00, 0x24, 0x00, 0x00, 0x00,
  0x00, 0x00, 0x00, 0x05, 0x34, 0x00, 0x00, 0x00, 0x38, 0x00, 0x00, 0x00,
  0x01, 0x00, 0x00, 0x00, 0x00, 0x00, 0x0e, 0x00, 0x18, 0x00, 0x17, 0x00,
  0x10, 0x00, 0x0c, 0x00, 0x08, 0x00, 0x04, 0x00, 0x0e, 0x00, 0x00, 0x00,
  0x02, 0x00, 0x00, 0x00, 0x02, 0x00, 0x00, 0x00, 0x02, 0x00, 0x00, 0x00,
  0x02, 0x00, 0x00, 0x00, 0x00, 0x00, 0x00, 0x01, 0x01, 0x00, 0x00, 0x00,
  0x0f, 0x00, 0x00, 0x00, 0x01, 0x00, 0x00, 0x00, 0x0e, 0x00, 0x00, 0x00,
  0x00, 0x00, 0x0e, 0x00, 0x14, 0x00, 0x00, 0x00, 0x10, 0x00, 0x0c, 0x00,
  0x0b, 0x00, 0x04, 0x00, 0x0e, 0x00, 0x00, 0x00, 0x1c, 0x00, 0x00, 0x00,
  0x00, 0x00, 0x00, 0x01, 0x28, 0x00, 0x00, 0x00, 0x2c, 0x00, 0x00, 0x00,
  0x0c, 0x00, 0x14, 0x00, 0x13, 0x00, 0x0c, 0x00, 0x08, 0x00, 0x07, 0x00,
  0x0c, 0x00, 0x00, 0x00, 0x00, 0x00, 0x00, 0x01, 0x01, 0x00, 0x00, 0x00,
  0x01, 0x00, 0x00, 0x00, 0x00, 0x00, 0x00, 0x01, 0x01, 0x00, 0x00, 0x00,
  0x0e, 0x00, 0x00, 0x00, 0x03, 0x00, 0x00, 0x00, 0x00, 0x00, 0x00, 0x00,
  0x0b, 0x00, 0x00, 0x00, 0x04, 0x00, 0x00, 0x00, 0x01, 0x00, 0x00, 0x00,
  0x18, 0x00, 0x00, 0x00, 0x01, 0x00, 0x00, 0x00, 0x00, 0x00, 0x00, 0x00,
  0x19, 0x00, 0x00, 0x00, 0xd0, 0x0a, 0x00, 0x00, 0x84, 0x0a, 0x00, 0x00,
  0x3c, 0x0a, 0x00, 0x00, 0x04, 0x0a, 0x00, 0x00, 0x74, 0x09, 0x00, 0x00,
  0xe0, 0x08, 0x00, 0x00, 0x4c, 0x08, 0x00, 0x00, 0xe0, 0x07, 0x00, 0x00,
  0x84, 0x07, 0x00, 0x00, 0x38, 0x07, 0x00, 0x00, 0xec, 0x06, 0x00, 0x00,
  0x98, 0x06, 0x00, 0x00, 0x44, 0x06, 0x00, 0x00, 0xf0, 0x05, 0x00, 0x00,
  0x3c, 0x05, 0x00, 0x00, 0xc8, 0x04, 0x00, 0x00, 0x10, 0x04, 0x00, 0x00,
  0x9c, 0x03, 0x00, 0x00, 0xe4, 0x02, 0x00, 0x00, 0x70, 0x02, 0x00, 0x00,
  0x04, 0x02, 0x00, 0x00, 0x70, 0x01, 0x00, 0x00, 0xd8, 0x00, 0x00, 0x00,
  0x5c, 0x00, 0x00, 0x00, 0x04, 0x00, 0x00, 0x00, 0xa8, 0xf5, 0xff, 0xff,
  0x14, 0x00, 0x00, 0x00, 0x1c, 0x00, 0x00, 0x00, 0x1c, 0x00, 0x00, 0x00,
  0x19, 0x00, 0x00, 0x00, 0x34, 0x00, 0x00, 0x00, 0x02, 0x00, 0x00, 0x00,
  0xff, 0xff, 0xff, 0xff, 0x04, 0x00, 0x00, 0x00, 0x8c, 0xf5, 0xff, 0xff,
  0x19, 0x00, 0x00, 0x00, 0x53, 0x74, 0x61, 0x74, 0x65, 0x66, 0x75, 0x6c,
  0x50, 0x61, 0x72, 0x74, 0x69, 0x74, 0x69, 0x6f, 0x6e, 0x65, 0x64, 0x43,
  0x61, 0x6c, 0x6c, 0x3a, 0x30, 0x00, 0x00, 0x00, 0x02, 0x00, 0x00, 0x00,
  0x01, 0x00, 0x00, 0x00, 0x04, 0x00, 0x00, 0x00, 0xfc, 0xf5, 0xff, 0xff,
  0x14, 0x00, 0x00, 0x00, 0x1c, 0x00, 0x00, 0x00, 0x1c, 0x00, 0x00, 0x00,
  0x18, 0x00, 0x00, 0x00, 0x58, 0x00, 0x00, 0x00, 0x02, 0x00, 0x00, 0x00,
  0xff, 0xff, 0xff, 0xff, 0x04, 0x00, 0x00, 0x00, 0xe0, 0xf5, 0xff, 0xff,
  0x3c, 0x00, 0x00, 0x00, 0x73, 0x65, 0x71, 0x75, 0x65, 0x6e, 0x74, 0x69,
  0x61, 0x6c, 0x5f, 0x31, 0x31, 0x2f, 0x64, 0x65, 0x6e, 0x73, 0x65, 0x5f,
  0x31, 0x31, 0x2f, 0x4d, 0x61, 0x74, 0x4d, 0x75, 0x6c, 0x3b, 0x73, 0x65,
  0x71, 0x75, 0x65, 0x6e, 0x74, 0x69, 0x61, 0x6c, 0x5f, 0x31, 0x31, 0x2f,
  0x64, 0x65, 0x6e, 0x73, 0x65, 0x5f, 0x31, 0x31, 0x2f, 0x42, 0x69, 0x61,
  0x73, 0x41, 0x64, 0x64, 0x00, 0x00, 0x00, 0x00, 0x02, 0x00, 0x00, 0x00,
  0x01, 0x00, 0x00, 0x00, 0x04, 0x00, 0x00, 0x00, 0x74, 0xf6, 0xff, 0xff,
  0x14, 0x00, 0x00, 0x00, 0x1c, 0x00, 0x00, 0x00, 0x1c, 0x00, 0x00, 0x00,
  0x17, 0x00, 0x00, 0x00, 0x74, 0x00, 0x00, 0x00, 0x02, 0x00, 0x00, 0x00,
  0xff, 0xff, 0xff, 0xff, 0x08, 0x00, 0x00, 0x00, 0x58, 0xf6, 0xff, 0xff,
  0x58, 0x00, 0x00, 0x00, 0x73, 0x65, 0x71, 0x75, 0x65, 0x6e, 0x74, 0x69,
  0x61, 0x6c, 0x5f, 0x31, 0x31, 0x2f, 0x64, 0x65, 0x6e, 0x73, 0x65, 0x5f,
  0x31, 0x30, 0x2f, 0x4d, 0x61, 0x74, 0x4d, 0x75, 0x6c, 0x3b, 0x73, 0x65,
  0x71, 0x75, 0x65, 0x6e, 0x74, 0x69, 0x61, 0x6c, 0x5f, 0x31, 0x31, 0x2f,
  0x64, 0x65, 0x6e, 0x73, 0x65, 0x5f, 0x31, 0x30, 0x2f, 0x52, 0x65, 0x6c,
  0x75, 0x3b, 0x73, 0x65, 0x71, 0x75, 0x65, 0x6e, 0x74, 0x69, 0x61, 0x6c,
  0x5f, 0x31, 0x31, 0x2f, 0x64, 0x65, 0x6e, 0x73, 0x65, 0x5f, 0x31, 0x30,
  0x2f, 0x42, 0x69, 0x61, 0x73, 0x41, 0x64, 0x64, 0x00, 0x00, 0x00, 0x00,
  0x02, 0x00, 0x00, 0x00, 0x01, 0x00, 0x00, 0x00, 0x08, 0x00, 0x00, 0x00,
  0x08, 0xf7, 0xff, 0xff, 0x14, 0x00, 0x00, 0x00, 0x1c, 0x00, 0x00, 0x00,
  0x1c, 0x00, 0x00, 0x00, 0x16, 0x00, 0x00, 0x00, 0x70, 0x00, 0x00, 0x00,
  0x02, 0x00, 0x00, 0x00, 0xff, 0xff, 0xff, 0xff, 0x10, 0x00, 0x00, 0x00,
  0xec, 0xf6, 0xff, 0xff, 0x55, 0x00, 0x00, 0x00, 0x73, 0x65, 0x71, 0x75,
  0x65, 0x6e, 0x74, 0x69, 0x61, 0x6c, 0x5f, 0x31, 0x31, 0x2f, 0x64, 0x65,
  0x6e, 0x73, 0x65, 0x5f, 0x39, 0x2f, 0x4d, 0x61, 0x74, 0x4d, 0x75, 0x6c,
  0x3b, 0x73, 0x65, 0x71, 0x75, 0x65, 0x6e, 0x74, 0x69, 0x61, 0x6c, 0x5f,
  0x31, 0x31, 0x2f, 0x64, 0x65, 0x6e, 0x73, 0x65, 0x5f, 0x39, 0x2f, 0x52,
  0x65, 0x6c, 0x75, 0x3b, 0x73, 0x65, 0x71, 0x75, 0x65, 0x6e, 0x74, 0x69,
  0x61, 0x6c, 0x5f, 0x31, 0x31, 0x2f, 0x64, 0x65, 0x6e, 0x73, 0x65, 0x5f,
  0x39, 0x2f, 0x42, 0x69, 0x61, 0x73, 0x41, 0x64, 0x64, 0x00, 0x00, 0x00,
  0x02, 0x00, 0x00, 0x00, 0x01, 0x00, 0x00, 0x00, 0x10, 0x00, 0x00, 0x00,
  0x98, 0xf7, 0xff, 0xff, 0x14, 0x00, 0x00, 0x00, 0x1c, 0x00, 0x00, 0x00,
  0x1c, 0x00, 0x00, 0x00, 0x15, 0x00, 0x00, 0x00, 0x48, 0x00, 0x00, 0x00,
  0x02, 0x00, 0x00, 0x00, 0xff, 0xff, 0xff, 0xff, 0x10, 0x00, 0x00, 0x00,
  0x7c, 0xf7, 0xff, 0xff, 0x2d, 0x00, 0x00, 0x00, 0x73, 0x65, 0x71, 0x75,
  0x65, 0x6e, 0x74, 0x69, 0x61, 0x6c, 0x5f, 0x31, 0x31, 0x2f, 0x67, 0x6c,
  0x6f, 0x62, 0x61, 0x6c, 0x5f, 0x61, 0x76, 0x65, 0x72, 0x61, 0x67, 0x65,
  0x5f, 0x70, 0x6f, 0x6f, 0x6c, 0x69, 0x6e, 0x67, 0x32, 0x64, 0x5f, 0x33,
  0x2f, 0x4d, 0x65, 0x61, 0x6e, 0x00, 0x00, 0x00, 0x02, 0x00, 0x00, 0x00,
  0x01, 0x00, 0x00, 0x00, 0x10, 0x00, 0x00, 0x00, 0x00, 0xf8, 0xff, 0xff,
  0x14, 0x00, 0x00, 0x00, 0x24, 0x00, 0x00, 0x00, 0x24, 0x00, 0x00, 0x00,
  0x14, 0x00, 0x00, 0x00, 0x48, 0x00, 0x00, 0x00, 0x04, 0x00, 0x00, 0x00,
  0xff, 0xff, 0xff, 0xff, 0x0e, 0x00, 0x00, 0x00, 0x0e, 0x00, 0x00, 0x00,
  0x10, 0x00, 0x00, 0x00, 0xec, 0xf7, 0xff, 0xff, 0x26, 0x00, 0x00, 0x00,
  0x73, 0x65, 0x71, 0x75, 0x65, 0x6e, 0x74, 0x69, 0x61, 0x6c, 0x5f, 0x31,
  0x31, 0x2f, 0x6d, 0x61, 0x78, 0x5f, 0x70, 0x6f, 0x6f, 0x6c, 0x69, 0x6e,
  0x67, 0x32, 0x64, 0x5f, 0x31, 0x31, 0x2f, 0x4d, 0x61, 0x78, 0x50, 0x6f,
  0x6f, 0x6c, 0x00, 0x00, 0x04, 0x00, 0x00, 0x00, 0x01, 0x00, 0x00, 0x00,
  0x0e, 0x00, 0x00, 0x00, 0x0e, 0x00, 0x00, 0x00, 0x10, 0x00, 0x00, 0x00,
  0x70, 0xf8, 0xff, 0xff, 0x14, 0x00, 0x00, 0x00, 0x24, 0x00, 0x00, 0x00,
  0x24, 0x00, 0x00, 0x00, 0x13, 0x00, 0x00, 0x00, 0x8c, 0x00, 0x00, 0x00,
  0x04, 0x00, 0x00, 0x00, 0xff, 0xff, 0xff, 0xff, 0x1c, 0x00, 0x00, 0x00,
  0x1c, 0x00, 0x00, 0x00, 0x10, 0x00, 0x00, 0x00, 0x5c, 0xf8, 0xff, 0xff,
  0x6b, 0x00, 0x00, 0x00, 0x73, 0x65, 0x71, 0x75, 0x65, 0x6e, 0x74, 0x69,
  0x61, 0x6c, 0x5f, 0x31, 0x31, 0x2f, 0x63, 0x6f, 0x6e, 0x76, 0x32, 0x64,
  0x5f, 0x31, 0x31, 0x2f, 0x52, 0x65, 0x6c, 0x75, 0x3b, 0x73, 0x65, 0x71,
  0x75, 0x65, 0x6e, 0x74, 0x69, 0x61, 0x6c, 0x5f, 0x31, 0x31, 0x2f, 0x63,
  0x6f, 0x6e, 0x76, 0x32, 0x64, 0x5f, 0x31, 0x31, 0x2f, 0x42, 0x69, 0x61,
  0x73, 0x41, 0x64, 0x64, 0x3b, 0x73, 0x65, 0x71, 0x75, 0x65, 0x6e, 0x74,
  0x69, 0x61, 0x6c, 0x5f, 0x31, 0x31, 0x2f, 0x63, 0x6f, 0x6e, 0x76, 0x32,
  0x64, 0x5f, 0x31, 0x31, 0x2f, 0x43, 0x6f, 0x6e, 0x76, 0x32, 0x44, 0x3b,
  0x63, 0x6f, 0x6e, 0x76, 0x32, 0x64, 0x5f, 0x31, 0x31, 0x2f, 0x62, 0x69,
  0x61, 0x73, 0x31, 0x00, 0x04, 0x00, 0x00, 0x00, 0x01, 0x00, 0x00, 0x00,
  0x1c, 0x00, 0x00, 0x00, 0x1c, 0x00, 0x00, 0x00, 0x10, 0x00, 0x00, 0x00,
  0x24, 0xf9, 0xff, 0xff, 0x14, 0x00, 0x00, 0x00, 0x24, 0x00, 0x00, 0x00,
  0x24, 0x00, 0x00, 0x00, 0x12, 0x00, 0x00, 0x00, 0x48, 0x00, 0x00, 0x00,
  0x04, 0x00, 0x00, 0x00, 0xff, 0xff, 0xff, 0xff, 0x1e, 0x00, 0x00, 0x00,
  0x1e, 0x00, 0x00, 0x00, 0x08, 0x00, 0x00, 0x00, 0x10, 0xf9, 0xff, 0xff,
  0x26, 0x00, 0x00, 0x00, 0x73, 0x65, 0x71, 0x75, 0x65, 0x6e, 0x74, 0x69,
  0x61, 0x6c, 0x5f, 0x31, 0x31, 0x2f, 0x6d, 0x61, 0x78, 0x5f, 0x70, 0x6f,
  0x6f, 0x6c, 0x69, 0x6e, 0x67, 0x32, 0x64, 0x5f, 0x31, 0x30, 0x2f, 0x4d,
  0x61, 0x78, 0x50, 0x6f, 0x6f, 0x6c, 0x00, 0x00, 0x04, 0x00, 0x00, 0x00,
  0x01, 0x00, 0x00, 0x00, 0x1e, 0x00, 0x00, 0x00, 0x1e, 0x00, 0x00, 0x00,
  0x08, 0x00, 0x00, 0x00, 0x94, 0xf9, 0xff, 0xff, 0x14, 0x00, 0x00, 0x00,
  0x24, 0x00, 0x00, 0x00, 0x24, 0x00, 0x00, 0x00, 0x11, 0x00, 0x00, 0x00,
  0x8c, 0x00, 0x00, 0x00, 0x04, 0x00, 0x00, 0x00, 0xff, 0xff, 0xff, 0xff,
  0x3d, 0x00, 0x00, 0x00, 0x3d, 0x00, 0x00, 0x00, 0x08, 0x00, 0x00, 0x00,
  0x80, 0xf9, 0xff, 0xff, 0x6b, 0x00, 0x00, 0x00, 0x73, 0x65, 0x71, 0x75,
  0x65, 0x6e, 0x74, 0x69, 0x61, 0x6c, 0x5f, 0x31, 0x31, 0x2f, 0x63, 0x6f,
  0x6e, 0x76, 0x32, 0x64, 0x5f, 0x31, 0x30, 0x2f, 0x52, 0x65, 0x6c, 0x75,
  0x3b, 0x73, 0x65, 0x71, 0x75, 0x65, 0x6e, 0x74, 0x69, 0x61, 0x6c, 0x5f,
  0x31, 0x31, 0x2f, 0x63, 0x6f, 0x6e, 0x76, 0x32, 0x64, 0x5f, 0x31, 0x30,
  0x2f, 0x42, 0x69, 0x61, 0x73, 0x41, 0x64, 0x64, 0x3b, 0x73, 0x65, 0x71,
  0x75, 0x65, 0x6e, 0x74, 0x69, 0x61, 0x6c, 0x5f, 0x31, 0x31, 0x2f, 0x63,
  0x6f, 0x6e, 0x76, 0x32, 0x64, 0x5f, 0x31, 0x30, 0x2f, 0x43, 0x6f, 0x6e,
  0x76, 0x32, 0x44, 0x3b, 0x63, 0x6f, 0x6e, 0x76, 0x32, 0x64, 0x5f, 0x31,
  0x30, 0x2f, 0x62, 0x69, 0x61, 0x73, 0x31, 0x00, 0x04, 0x00, 0x00, 0x00,
  0x01, 0x00, 0x00, 0x00, 0x3d, 0x00, 0x00, 0x00, 0x3d, 0x00, 0x00, 0x00,
  0x08, 0x00, 0x00, 0x00, 0x48, 0xfa, 0xff, 0xff, 0x14, 0x00, 0x00, 0x00,
  0x24, 0x00, 0x00, 0x00, 0x24, 0x00, 0x00, 0x00, 0x10, 0x00, 0x00, 0x00,
  0x48, 0x00, 0x00, 0x00, 0x04, 0x00, 0x00, 0x00, 0xff, 0xff, 0xff, 0xff,
  0x3f, 0x00, 0x00, 0x00, 0x3f, 0x00, 0x00, 0x00, 0x04, 0x00, 0x00, 0x00,
  0x34, 0xfa, 0xff, 0xff, 0x25, 0x00, 0x00, 0x00, 0x73, 0x65, 0x71, 0x75,
  0x65, 0x6e, 0x74, 0x69, 0x61, 0x6c, 0x5f, 0x31, 0x31, 0x2f, 0x6d, 0x61,
  0x78, 0x5f, 0x70, 0x6f, 0x6f, 0x6c, 0x69, 0x6e, 0x67, 0x32, 0x64, 0x5f,
  0x39, 0x2f, 0x4d, 0x61, 0x78, 0x50, 0x6f, 0x6f, 0x6c, 0x00, 0x00, 0x00,
  0x04, 0x00, 0x00, 0x00, 0x01, 0x00, 0x00, 0x00, 0x3f, 0x00, 0x00, 0x00,
  0x3f, 0x00, 0x00, 0x00, 0x04, 0x00, 0x00, 0x00, 0xb8, 0xfa, 0xff, 0xff,
  0x14, 0x00, 0x00, 0x00, 0x24, 0x00, 0x00, 0x00, 0x24, 0x00, 0x00, 0x00,
  0x0f, 0x00, 0x00, 0x00, 0x88, 0x00, 0x00, 0x00, 0x04, 0x00, 0x00, 0x00,
  0xff, 0xff, 0xff, 0xff, 0x7e, 0x00, 0x00, 0x00, 0x7e, 0x00, 0x00, 0x00,
  0x04, 0x00, 0x00, 0x00, 0xa4, 0xfa, 0xff, 0xff, 0x67, 0x00, 0x00, 0x00,
  0x73, 0x65, 0x71, 0x75, 0x65, 0x6e, 0x74, 0x69, 0x61, 0x6c, 0x5f, 0x31,
  0x31, 0x2f, 0x63, 0x6f, 0x6e, 0x76, 0x32, 0x64, 0x5f, 0x39, 0x2f, 0x52,
  0x65, 0x6c, 0x75, 0x3b, 0x73, 0x65, 0x71, 0x75, 0x65, 0x6e, 0x74, 0x69,
  0x61, 0x6c, 0x5f, 0x31, 0x31, 0x2f, 0x63, 0x6f, 0x6e, 0x76, 0x32, 0x64,
  0x5f, 0x39, 0x2f, 0x42, 0x69, 0x61, 0x73, 0x41, 0x64, 0x64, 0x3b, 0x73,
  0x65, 0x71, 0x75, 0x65, 0x6e, 0x74, 0x69, 0x61, 0x6c, 0x5f, 0x31, 0x31,
  0x2f, 0x63, 0x6f, 0x6e, 0x76, 0x32, 0x64, 0x5f, 0x39, 0x2f, 0x43, 0x6f,
  0x6e, 0x76, 0x32, 0x44, 0x3b, 0x63, 0x6f, 0x6e, 0x76, 0x32, 0x64, 0x5f,
  0x39, 0x2f, 0x62, 0x69, 0x61, 0x73, 0x31, 0x00, 0x04, 0x00, 0x00, 0x00,
  0x01, 0x00, 0x00, 0x00, 0x7e, 0x00, 0x00, 0x00, 0x7e, 0x00, 0x00, 0x00,
  0x04, 0x00, 0x00, 0x00, 0xaa, 0xfb, 0xff, 0xff, 0x10, 0x00, 0x00, 0x00,
  0x10, 0x00, 0x00, 0x00, 0x0e, 0x00, 0x00, 0x00, 0x2c, 0x00, 0x00, 0x00,
  0x3c, 0xfb, 0xff, 0xff, 0x1e, 0x00, 0x00, 0x00, 0x73, 0x65, 0x71, 0x75,
  0x65, 0x6e, 0x74, 0x69, 0x61, 0x6c, 0x5f, 0x31, 0x31, 0x2f, 0x63, 0x6f,
  0x6e, 0x76, 0x32, 0x64, 0x5f, 0x31, 0x31, 0x2f, 0x43, 0x6f, 0x6e, 0x76,
  0x32, 0x44, 0x00, 0x00, 0x04, 0x00, 0x00, 0x00, 0x10, 0x00, 0x00, 0x00,
  0x03, 0x00, 0x00, 0x00, 0x03, 0x00, 0x00, 0x00, 0x08, 0x00, 0x00, 0x00,
  0xfa, 0xfb, 0xff, 0xff, 0x10, 0x00, 0x00, 0x00, 0x10, 0x00, 0x00, 0x00,
  0x0d, 0x00, 0x00, 0x00, 0x2c, 0x00, 0x00, 0x00, 0x8c, 0xfb, 0xff, 0xff,
  0x1e, 0x00, 0x00, 0x00, 0x73, 0x65, 0x71, 0x75, 0x65, 0x6e, 0x74, 0x69,
  0x61, 0x6c, 0x5f, 0x31, 0x31, 0x2f, 0x63, 0x6f, 0x6e, 0x76, 0x32, 0x64,
  0x5f, 0x31, 0x30, 0x2f, 0x43, 0x6f, 0x6e, 0x76, 0x32, 0x44, 0x00, 0x00,
  0x04, 0x00, 0x00, 0x00, 0x08, 0x00, 0x00, 0x00, 0x03, 0x00, 0x00, 0x00,
  0x03, 0x00, 0x00, 0x00, 0x04, 0x00, 0x00, 0x00, 0x4a, 0xfc, 0xff, 0xff,
  0x10, 0x00, 0x00, 0x00, 0x10, 0x00, 0x00, 0x00, 0x0c, 0x00, 0x00, 0x00,
  0x2c, 0x00, 0x00, 0x00, 0xdc, 0xfb, 0xff, 0xff, 0x1d, 0x00, 0x00, 0x00,
  0x73, 0x65, 0x71, 0x75, 0x65, 0x6e, 0x74, 0x69, 0x61, 0x6c, 0x5f, 0x31,
  0x31, 0x2f, 0x63, 0x6f, 0x6e, 0x76, 0x32, 0x64, 0x5f, 0x39, 0x2f, 0x43,
  0x6f, 0x6e, 0x76, 0x32, 0x44, 0x00, 0x00, 0x00, 0x04, 0x00, 0x00, 0x00,
  0x04, 0x00, 0x00, 0x00, 0x03, 0x00, 0x00, 0x00, 0x03, 0x00, 0x00, 0x00,
  0x03, 0x00, 0x00, 0x00, 0x9a, 0xfc, 0xff, 0xff, 0x10, 0x00, 0x00, 0x00,
  0x10, 0x00, 0x00, 0x00, 0x0b, 0x00, 0x00, 0x00, 0x2c, 0x00, 0x00, 0x00,
  0x2c, 0xfc, 0xff, 0xff, 0x1d, 0x00, 0x00, 0x00, 0x73, 0x65, 0x71, 0x75,
  0x65, 0x6e, 0x74, 0x69, 0x61, 0x6c, 0x5f, 0x31, 0x31, 0x2f, 0x64, 0x65,
  0x6e, 0x73, 0x65, 0x5f, 0x31, 0x31, 0x2f, 0x4d, 0x61, 0x74, 0x4d, 0x75,
  0x6c, 0x00, 0x00, 0x00, 0x02, 0x00, 0x00, 0x00, 0x04, 0x00, 0x00, 0x00,
  0x08, 0x00, 0x00, 0x00, 0xe2, 0xfc, 0xff, 0xff, 0x10, 0x00, 0x00, 0x00,
  0x10, 0x00, 0x00, 0x00, 0x0a, 0x00, 0x00, 0x00, 0x2c, 0x00, 0x00, 0x00,
  0x74, 0xfc, 0xff, 0xff, 0x1d, 0x00, 0x00, 0x00, 0x73, 0x65, 0x71, 0x75,
  0x65, 0x6e, 0x74, 0x69, 0x61, 0x6c, 0x5f, 0x31, 0x31, 0x2f, 0x64, 0x65,
  0x6e, 0x73, 0x65, 0x5f, 0x31, 0x30, 0x2f, 0x4d, 0x61, 0x74, 0x4d, 0x75,
  0x6c, 0x00, 0x00, 0x00, 0x02, 0x00, 0x00, 0x00, 0x08, 0x00, 0x00, 0x00,
  0x10, 0x00, 0x00, 0x00, 0x2a, 0xfd, 0xff, 0xff, 0x10, 0x00, 0x00, 0x00,
  0x10, 0x00, 0x00, 0x00, 0x09, 0x00, 0x00, 0x00, 0x2c, 0x00, 0x00, 0x00,
  0xbc, 0xfc, 0xff, 0xff, 0x1c, 0x00, 0x00, 0x00, 0x73, 0x65, 0x71, 0x75,
  0x65, 0x6e, 0x74, 0x69, 0x61, 0x6c, 0x5f, 0x31, 0x31, 0x2f, 0x64, 0x65,
  0x6e, 0x73, 0x65, 0x5f, 0x39, 0x2f, 0x4d, 0x61, 0x74, 0x4d, 0x75, 0x6c,
  0x00, 0x00, 0x00, 0x00, 0x02, 0x00, 0x00, 0x00, 0x10, 0x00, 0x00, 0x00,
  0x10, 0x00, 0x00, 0x00, 0x00, 0x00, 0x0e, 0x00, 0x18, 0x00, 0x14, 0x00,
  0x13, 0x00, 0x0c, 0x00, 0x08, 0x00, 0x04, 0x00, 0x0e, 0x00, 0x00, 0x00,
  0x14, 0x00, 0x00, 0x00, 0x14, 0x00, 0x00, 0x00, 0x08, 0x00, 0x00, 0x00,
  0x00, 0x00, 0x00, 0x02, 0x4c, 0x00, 0x00, 0x00, 0x18, 0xfd, 0xff, 0xff,
  0x3f, 0x00, 0x00, 0x00, 0x73, 0x65, 0x71, 0x75, 0x65, 0x6e, 0x74, 0x69,
  0x61, 0x6c, 0x5f, 0x31, 0x31, 0x2f, 0x67, 0x6c, 0x6f, 0x62, 0x61, 0x6c,
  0x5f, 0x61, 0x76, 0x65, 0x72, 0x61, 0x67, 0x65, 0x5f, 0x70, 0x6f, 0x6f,
  0x6c, 0x69, 0x6e, 0x67, 0x32, 0x64, 0x5f, 0x33, 0x2f, 0x4d, 0x65, 0x61,
  0x6e, 0x2f, 0x72, 0x65, 0x64, 0x75, 0x63, 0x74, 0x69, 0x6f, 0x6e, 0x5f,
  0x69, 0x6e, 0x64, 0x69, 0x63, 0x65, 0x73, 0x00, 0x01, 0x00, 0x00, 0x00,
  0x02, 0x00, 0x00, 0x00, 0xea, 0xfd, 0xff, 0xff, 0x10, 0x00, 0x00, 0x00,
  0x10, 0x00, 0x00, 0x00, 0x07, 0x00, 0x00, 0x00, 0x78, 0x00, 0x00, 0x00,
  0x7c, 0xfd, 0xff, 0xff, 0x6a, 0x00, 0x00, 0x00, 0x73, 0x65, 0x71, 0x75,
  0x65, 0x6e, 0x74, 0x69, 0x61, 0x6c, 0x5f, 0x31, 0x31, 0x2f, 0x63, 0x6f,
  0x6e, 0x76, 0x32, 0x64, 0x5f, 0x31, 0x30, 0x2f, 0x52, 0x65, 0x6c, 0x75,
  0x3b, 0x73, 0x65, 0x71, 0x75, 0x65, 0x6e, 0x74, 0x69, 0x61, 0x6c, 0x5f,
  0x31, 0x31, 0x2f, 0x63, 0x6f, 0x6e, 0x76, 0x32, 0x64, 0x5f, 0x31, 0x30,
  0x2f, 0x42, 0x69, 0x61, 0x73, 0x41, 0x64, 0x64, 0x3b, 0x73, 0x65, 0x71,
  0x75, 0x65, 0x6e, 0x74, 0x69, 0x61, 0x6c, 0x5f, 0x31, 0x31, 0x2f, 0x63,
  0x6f, 0x6e, 0x76, 0x32, 0x64, 0x5f, 0x31, 0x30, 0x2f, 0x43, 0x6f, 0x6e,
  0x76, 0x32, 0x44, 0x3b, 0x63, 0x6f, 0x6e, 0x76, 0x32, 0x64, 0x5f, 0x31,
  0x30, 0x2f, 0x62, 0x69, 0x61, 0x73, 0x00, 0x00, 0x01, 0x00, 0x00, 0x00,
  0x08, 0x00, 0x00, 0x00, 0x7a, 0xfe, 0xff, 0xff, 0x10, 0x00, 0x00, 0x00,
  0x10, 0x00, 0x00, 0x00, 0x06, 0x00, 0x00, 0x00, 0x78, 0x00, 0x00, 0x00,
  0x0c, 0xfe, 0xff, 0xff, 0x6a, 0x00, 0x00, 0x00, 0x73, 0x65, 0x71, 0x75,
  0x65, 0x6e, 0x74, 0x69, 0x61, 0x6c, 0x5f, 0x31, 0x31, 0x2f, 0x63, 0x6f,
  0x6e, 0x76, 0x32, 0x64, 0x5f, 0x31, 0x31, 0x2f, 0x52, 0x65, 0x6c, 0x75,
  0x3b, 0x73, 0x65, 0x71, 0x75, 0x65, 0x6e, 0x74, 0x69, 0x61, 0x6c, 0x5f,
  0x31, 0x31, 0x2f, 0x63, 0x6f, 0x6e, 0x76, 0x32, 0x64, 0x5f, 0x31, 0x31,
  0x2f, 0x42, 0x69, 0x61, 0x73, 0x41, 0x64, 0x64, 0x3b, 0x73, 0x65, 0x71,
  0x75, 0x65, 0x6e, 0x74, 0x69, 0x61, 0x6c, 0x5f, 0x31, 0x31, 0x2f, 0x63,
  0x6f, 0x6e, 0x76, 0x32, 0x64, 0x5f, 0x31, 0x31, 0x2f, 0x43, 0x6f, 0x6e,
  0x76, 0x32, 0x44, 0x3b, 0x63, 0x6f, 0x6e, 0x76, 0x32, 0x64, 0x5f, 0x31,
  0x31, 0x2f, 0x62, 0x69, 0x61, 0x73, 0x00, 0x00, 0x01, 0x00, 0x00, 0x00,
  0x10, 0x00, 0x00, 0x00, 0x0a, 0xff, 0xff, 0xff, 0x10, 0x00, 0x00, 0x00,
  0x10, 0x00, 0x00, 0x00, 0x05, 0x00, 0x00, 0x00, 0x74, 0x00, 0x00, 0x00,
  0x9c, 0xfe, 0xff, 0xff, 0x66, 0x00, 0x00, 0x00, 0x73, 0x65, 0x71, 0x75,
  0x65, 0x6e, 0x74, 0x69, 0x61, 0x6c, 0x5f, 0x31, 0x31, 0x2f, 0x63, 0x6f,
  0x6e, 0x76, 0x32, 0x64, 0x5f, 0x39, 0x2f, 0x52, 0x65, 0x6c, 0x75, 0x3b,
  0x73, 0x65, 0x71, 0x75, 0x65, 0x6e, 0x74, 0x69, 0x61, 0x6c, 0x5f, 0x31,
  0x31, 0x2f, 0x63, 0x6f, 0x6e, 0x76, 0x32, 0x64, 0x5f, 0x39, 0x2f, 0x42,
  0x69, 0x61, 0x73, 0x41, 0x64, 0x64, 0x3b, 0x73, 0x65, 0x71, 0x75, 0x65,
  0x6e, 0x74, 0x69, 0x61, 0x6c, 0x5f, 0x31, 0x31, 0x2f, 0x63, 0x6f, 0x6e,
  0x76, 0x32, 0x64, 0x5f, 0x39, 0x2f, 0x43, 0x6f, 0x6e, 0x76, 0x32, 0x44,
  0x3b, 0x63, 0x6f, 0x6e, 0x76, 0x32, 0x64, 0x5f, 0x39, 0x2f, 0x62, 0x69,
  0x61, 0x73, 0x00, 0x00, 0x01, 0x00, 0x00, 0x00, 0x04, 0x00, 0x00, 0x00,
  0x96, 0xff, 0xff, 0xff, 0x10, 0x00, 0x00, 0x00, 0x10, 0x00, 0x00, 0x00,
  0x04, 0x00, 0x00, 0x00, 0x1c, 0x00, 0x00, 0x00, 0x28, 0xff, 0xff, 0xff,
  0x0d, 0x00, 0x00, 0x00, 0x64, 0x65, 0x6e, 0x73, 0x65, 0x5f, 0x31, 0x30,
  0x2f, 0x62, 0x69, 0x61, 0x73, 0x00, 0x00, 0x00, 0x01, 0x00, 0x00, 0x00,
  0x08, 0x00, 0x00, 0x00, 0xca, 0xff, 0xff, 0xff, 0x10, 0x00, 0x00, 0x00,
  0x10, 0x00, 0x00, 0x00, 0x03, 0x00, 0x00, 0x00, 0x1c, 0x00, 0x00, 0x00,
  0x5c, 0xff, 0xff, 0xff, 0x0d, 0x00, 0x00, 0x00, 0x64, 0x65, 0x6e, 0x73,
  0x65, 0x5f, 0x31, 0x31, 0x2f, 0x62, 0x69, 0x61, 0x73, 0x00, 0x00, 0x00,
  0x01, 0x00, 0x00, 0x00, 0x04, 0x00, 0x00, 0x00, 0x00, 0x00, 0x0e, 0x00,
  0x14, 0x00, 0x10, 0x00, 0x00, 0x00, 0x0c, 0x00, 0x08, 0x00, 0x04, 0x00,
  0x0e, 0x00, 0x00, 0x00, 0x10, 0x00, 0x00, 0x00, 0x10, 0x00, 0x00, 0x00,
  0x02, 0x00, 0x00, 0x00, 0x1c, 0x00, 0x00, 0x00, 0xa0, 0xff, 0xff, 0xff,
  0x0c, 0x00, 0x00, 0x00, 0x64, 0x65, 0x6e, 0x73, 0x65, 0x5f, 0x39, 0x2f,
  0x62, 0x69, 0x61, 0x73, 0x00, 0x00, 0x00, 0x00, 0x01, 0x00, 0x00, 0x00,
  0x10, 0x00, 0x00, 0x00, 0x14, 0x00, 0x18, 0x00, 0x14, 0x00, 0x00, 0x00,
  0x10, 0x00, 0x0c, 0x00, 0x08, 0x00, 0x00, 0x00, 0x00, 0x00, 0x04, 0x00,
  0x14, 0x00, 0x00, 0x00, 0x14, 0x00, 0x00, 0x00, 0x28, 0x00, 0x00, 0x00,
  0x28, 0x00, 0x00, 0x00, 0x01, 0x00, 0x00, 0x00, 0x48, 0x00, 0x00, 0x00,
  0x04, 0x00, 0x00, 0x00, 0xff, 0xff, 0xff, 0xff, 0x80, 0x00, 0x00, 0x00,
  0x80, 0x00, 0x00, 0x00, 0x03, 0x00, 0x00, 0x00, 0x04, 0x00, 0x04, 0x00,
  0x04, 0x00, 0x00, 0x00, 0x20, 0x00, 0x00, 0x00, 0x73, 0x65, 0x72, 0x76,
  0x69, 0x6e, 0x67, 0x5f, 0x64, 0x65, 0x66, 0x61, 0x75, 0x6c, 0x74, 0x5f,
  0x63, 0x6f, 0x6e, 0x76, 0x32, 0x64, 0x5f, 0x39, 0x5f, 0x69, 0x6e, 0x70,
  0x75, 0x74, 0x3a, 0x30, 0x00, 0x00, 0x00, 0x00, 0x04, 0x00, 0x00, 0x00,
  0x01, 0x00, 0x00, 0x00, 0x80, 0x00, 0x00, 0x00, 0x80, 0x00, 0x00, 0x00,
  0x03, 0x00, 0x00, 0x00, 0x05, 0x00, 0x00, 0x00, 0x50, 0x00, 0x00, 0x00,
  0x34, 0x00, 0x00, 0x00, 0x24, 0x00, 0x00, 0x00, 0x14, 0x00, 0x00, 0x00,
  0x04, 0x00, 0x00, 0x00, 0xd0, 0xff, 0xff, 0xff, 0x19, 0x00, 0x00, 0x00,
  0x00, 0x00, 0x00, 0x19, 0xdc, 0xff, 0xff, 0xff, 0x09, 0x00, 0x00, 0x00,
  0x00, 0x00, 0x00, 0x09, 0xe8, 0xff, 0xff, 0xff, 0x28, 0x00, 0x00, 0x00,
  0x00, 0x00, 0x00, 0x28, 0xf4, 0xff, 0xff, 0xff, 0x11, 0x00, 0x00, 0x00,
  0x00, 0x00, 0x00, 0x11, 0x0c, 0x00, 0x0c, 0x00, 0x0b, 0x00, 0x00, 0x00,
  0x00, 0x00, 0x04, 0x00, 0x0c, 0x00, 0x00, 0x00, 0x03, 0x00, 0x00, 0x00,
  0x00, 0x00, 0x00, 0x03
};
